{
  "vocab_size": 5265,
  "vocab": {
    "!": 0,
    "\"": 1,
    "#": 2,
    "$": 3,
    "%": 4,
    "&": 5,
    "'": 6,
    "'s": 7,
    "'t": 8,
    "(": 9,
    ")": 10,
    "*": 11,
    "+": 12,
    ",": 13,
    "-": 14,
    ".": 15,
    "..": 16,
    "...": 17,
    ".S.": 18,
    "/": 19,
    "0": 20,
    "00": 21,
    "000": 22,
    "0s": 23,
    "1": 24,
    "10": 25,
    "100": 26,
    "11": 27,
    "12": 28,
    "13": 29,
    "14": 30,
    "15": 31,
    "16": 32,
    "17": 33,
    "18": 34,
    "180": 35,
    "1849": 36,
    "185": 37,
    "186": 38,
    "1861": 39,
    "1862": 40,
    "187": 41,
    "188": 42,
    "189": 43,
    "19": 44,
    "190": 45,
    "1911": 46,
    "1914": 47,
    "1915": 48,
    "1917": 49,
    "1918": 50,
    "1919": 51,
    "1920": 52,
    "1920s": 53,
    "1923": 54,
    "1925": 55,
    "1926": 56,
    "1929": 57,
    "193": 58,
    "1930": 59,
    "1937": 60,
    "1939": 61,
    "194": 62,
    "1940": 63,
    "1941": 64,
    "1942": 65,
    "1943": 66,
    "1944": 67,
    "195": 68,
    "1950": 69,
    "1952": 70,
    "1954": 71,
    "196": 72,
    "1961": 73,
    "197": 74,
    "1970s": 75,
    "1973": 76,
    "1975": 77,
    "198": 78,
    "1984": 79,
    "1985": 80,
    "1986": 81,
    "1987": 82,
    "1988": 83,
    "199": 84,
    "1990": 85,
    "1991": 86,
    "1992": 87,
    "1993": 88,
    "1994": 89,
    "1995": 90,
    "1996": 91,
    "1997": 92,
    "1998": 93,
    "1999": 94,
    "1st": 95,
    "2": 96,
    "20": 97,
    "200": 98,
    "2000": 99,
    "2001": 100,
    "2002": 101,
    "2003": 102,
    "2004": 103,
    "2005": 104,
    "2006": 105,
    "2007": 106,
    "2008": 107,
    "2009": 108,
    "201": 109,
    "2010": 110,
    "2011": 111,
    "2012": 112,
    "2013": 113,
    "2014": 114,
    "2015": 115,
    "2016": 116,
    "20th": 117,
    "21": 118,
    "22": 119,
    "23": 120,
    "24": 121,
    "25": 122,
    "26": 123,
    "27": 124,
    "28": 125,
    "29": 126,
    "2S": 127,
    "3": 128,
    "30": 129,
    "300": 130,
    "31": 131,
    "32": 132,
    "33": 133,
    "35": 134,
    "36": 135,
    "37": 136,
    "38": 137,
    "39": 138,
    "3rd": 139,
    "4": 140,
    "40": 141,
    "41": 142,
    "42": 143,
    "44": 144,
    "45": 145,
    "47": 146,
    "48": 147,
    "49": 148,
    "5": 149,
    "50": 150,
    "500": 151,
    "54": 152,
    "56": 153,
    "5th": 154,
    "6": 155,
    "60": 156,
    "600": 157,
    "64": 158,
    "69": 159,
    "7": 160,
    "70": 161,
    "72": 162,
    "75": 163,
    "76": 164,
    "79": 165,
    "7th": 166,
    "8": 167,
    "80": 168,
    "800": 169,
    "82": 170,
    "86": 171,
    "88": 172,
    "9": 173,
    "90": 174,
    "91": 175,
    "95": 176,
    ":": 177,
    ";": 178,
    "<": 179,
    "=": 180,
    "?": 181,
    "@": 182,
    "@,": 183,
    "@,@": 184,
    "@-": 185,
    "@-@": 186,
    "@.": 187,
    "@.@": 188,
    "A": 189,
    "A.": 190,
    "AA": 191,
    "AS": 192,
    "Ab": 193,
    "Ac": 194,
    "Academ": 195,
    "Academy": 196,
    "According": 197,
    "Act": 198,
    "Actress": 199,
    "Ad": 200,
    "Adam": 201,
    "Add": 202,
    "Addition": 203,
    "Additionally": 204,
    "Admiral": 205,
    "Af": 206,
    "Afric": 207,
    "Africa": 208,
    "African": 209,
    "After": 210,
    "Age": 211,
    "Agust": 212,
    "Air": 213,
    "Aircraft": 214,
    "Airport": 215,
    "Ak": 216,
    "Al": 217,
    "Ale": 218,
    "Ali": 219,
    "All": 220,
    "Alli": 221,
    "Allied": 222,
    "Allosa": 223,
    "Allosaurus": 224,
    "Although": 225,
    "Am": 226,
    "Amend": 227,
    "Amer": 228,
    "America": 229,
    "American": 230,
    "Amun": 231,
    "An": 232,
    "Ancient": 233,
    "Ancon": 234,
    "Ancona": 235,
    "And": 236,
    "Anderson": 237,
    "Andrew": 238,
    "Ang": 239,
    "Angeles": 240,
    "Another": 241,
    "Ant": 242,
    "Antim": 243,
    "Antimony": 244,
    "Antiqu": 245,
    "Anton": 246,
    "Anup": 247,
    "Ao": 248,
    "AoT": 249,
    "Ap": 250,
    "Appe": 251,
    "Apr": 252,
    "April": 253,
    "Ar": 254,
    "Arab": 255,
    "Arch": 256,
    "Archaeolog": 257,
    "Archaeological": 258,
    "Archaeology": 259,
    "Ari": 260,
    "Ark": 261,
    "Arkans": 262,
    "Arkansas": 263,
    "Arm": 264,
    "Army": 265,
    "Arsen": 266,
    "Arsenal": 267,
    "Art": 268,
    "Arth": 269,
    "Arthur": 270,
    "As": 271,
    "Ash": 272,
    "Asian": 273,
    "Ass": 274,
    "Association": 275,
    "Astr": 276,
    "Astraeus": 277,
    "At": 278,
    "Aten": 279,
    "Atl": 280,
    "Atlanta": 281,
    "Au": 282,
    "August": 283,
    "Aust": 284,
    "Austral": 285,
    "Australia": 286,
    "Australian": 287,
    "Austro": 288,
    "Aviation": 289,
    "Aw": 290,
    "Award": 291,
    "Awards": 292,
    "B": 293,
    "B.": 294,
    "BC": 295,
    "Ba": 296,
    "Bach": 297,
    "Bachchan": 298,
    "Back": 299,
    "Background": 300,
    "Bah": 301,
    "Bal": 302,
    "Bang": 303,
    "Bar": 304,
    "Barker": 305,
    "Barrow": 306,
    "Bas": 307,
    "Batt": 308,
    "Battle": 309,
    "Bay": 310,
    "Be": 311,
    "Because": 312,
    "Bel": 313,
    "Ben": 314,
    "Ber": 315,
    "Best": 316,
    "Bet": 317,
    "Betwe": 318,
    "Between": 319,
    "Bi": 320,
    "Bill": 321,
    "Billboard": 322,
    "Bl": 323,
    "Black": 324,
    "Blackie": 325,
    "Blo": 326,
    "Blood": 327,
    "Blue": 328,
    "Bo": 329,
    "Board": 330,
    "Bob": 331,
    "Bollywood": 332,
    "Book": 333,
    "Bost": 334,
    "Boston": 335,
    "Bow": 336,
    "Boy": 337,
    "Br": 338,
    "Bristo": 339,
    "Bristol": 340,
    "Brit": 341,
    "Britain": 342,
    "British": 343,
    "Bro": 344,
    "Broad": 345,
    "Brook": 346,
    "Bu": 347,
    "Build": 348,
    "Building": 349,
    "Bulls": 350,
    "Bur": 351,
    "But": 352,
    "By": 353,
    "C": 354,
    "C.": 355,
    "CA": 356,
    "CAA": 357,
    "CAT": 358,
    "CO": 359,
    "Cab": 360,
    "Cabral": 361,
    "Cal": 362,
    "Cam": 363,
    "Camp": 364,
    "Can": 365,
    "Canad": 366,
    "Canada": 367,
    "Canadian": 368,
    "Cap": 369,
    "Captain": 370,
    "Car": 371,
    "Care": 372,
    "Carey": 373,
    "Carol": 374,
    "Carolina": 375,
    "Carter": 376,
    "Cast": 377,
    "Cath": 378,
    "Cathol": 379,
    "Catholic": 380,
    "Cent": 381,
    "Center": 382,
    "Central": 383,
    "Cer": 384,
    "Ch": 385,
    "Chap": 386,
    "Char": 387,
    "Charac": 388,
    "Charles": 389,
    "Charlot": 390,
    "Charlotte": 391,
    "Chay": 392,
    "Chayk": 393,
    "Chaykov": 394,
    "Chaykovsky": 395,
    "Chic": 396,
    "Chicago": 397,
    "Chief": 398,
    "Child": 399,
    "China": 400,
    "Chr": 401,
    "Chris": 402,
    "Christ": 403,
    "Christian": 404,
    "Christmas": 405,
    "Chron": 406,
    "Chronicles": 407,
    "Church": 408,
    "City": 409,
    "Civil": 410,
    "Cl": 411,
    "Clark": 412,
    "Clarkson": 413,
    "Class": 414,
    "Club": 415,
    "Co": 416,
    "Col": 417,
    "Cold": 418,
    "Coldrum": 419,
    "Colle": 420,
    "College": 421,
    "Columb": 422,
    "Columbus": 423,
    "Com": 424,
    "Come": 425,
    "Comed": 426,
    "Comm": 427,
    "Command": 428,
    "Commander": 429,
    "Con": 430,
    "Confed": 431,
    "Confederate": 432,
    "Conference": 433,
    "Cong": 434,
    "Congress": 435,
    "Cor": 436,
    "Core": 437,
    "Corey": 438,
    "Corn": 439,
    "Cornwall": 440,
    "Corps": 441,
    "Cou": 442,
    "Coun": 443,
    "Cour": 444,
    "Court": 445,
    "Cr": 446,
    "Crit": 447,
    "Cro": 448,
    "Croat": 449,
    "Croatia": 450,
    "Croy": 451,
    "Croydon": 452,
    "Cull": 453,
    "Cullen": 454,
    "Cup": 455,
    "D": 456,
    "DVD": 457,
    "Dah": 458,
    "Dan": 459,
    "Daniel": 460,
    "Dar": 461,
    "Darwin": 462,
    "Dav": 463,
    "David": 464,
    "Day": 465,
    "De": 466,
    "Dece": 467,
    "December": 468,
    "Def": 469,
    "Del": 470,
    "Dem": 471,
    "Den": 472,
    "Department": 473,
    "Des": 474,
    "Descri": 475,
    "Despite": 476,
    "Dev": 477,
    "Devin": 478,
    "Dh": 479,
    "Dharm": 480,
    "Direct": 481,
    "Director": 482,
    "Dis": 483,
    "Div": 484,
    "Division": 485,
    "Domin": 486,
    "Dominican": 487,
    "Dor": 488,
    "Dou": 489,
    "Dr": 490,
    "Dream": 491,
    "Du": 492,
    "Dun": 493,
    "During": 494,
    "Dutch": 495,
    "Dí": 496,
    "Díaz": 497,
    "E": 498,
    "E.": 499,
    "EAS": 500,
    "EASA": 501,
    "ERA": 502,
    "ES": 503,
    "Each": 504,
    "Early": 505,
    "East": 506,
    "Eastern": 507,
    "Eaton": 508,
    "Ed": 509,
    "Edmund": 510,
    "Egy": 511,
    "Egypt": 512,
    "Egyptian": 513,
    "Egyptians": 514,
    "El": 515,
    "Ele": 516,
    "Eleph": 517,
    "Elephanta": 518,
    "Em": 519,
    "Emmy": 520,
    "Emp": 521,
    "Empire": 522,
    "En": 523,
    "End": 524,
    "Eng": 525,
    "Engl": 526,
    "England": 527,
    "English": 528,
    "Enter": 529,
    "Entertain": 530,
    "Entertainment": 531,
    "Er": 532,
    "Erz": 533,
    "Erzher": 534,
    "Erzherz": 535,
    "Erzherzog": 536,
    "Euro": 537,
    "Europe": 538,
    "European": 539,
    "Ev": 540,
    "Even": 541,
    "Ex": 542,
    "Exeter": 543,
    "F": 544,
    "F.": 545,
    "FA": 546,
    "FI": 547,
    "FIFA": 548,
    "FIT": 549,
    "FITs": 550,
    "Fair": 551,
    "Fairies": 552,
    "Fe": 553,
    "Feast": 554,
    "Febru": 555,
    "February": 556,
    "Fer": 557,
    "Ferdin": 558,
    "Ferdinand": 559,
    "Fern": 560,
    "Fernand": 561,
    "Fernandez": 562,
    "Fey": 563,
    "Fil": 564,
    "Film": 565,
    "Fin": 566,
    "Finals": 567,
    "Fingal": 568,
    "First": 569,
    "Fl": 570,
    "Fle": 571,
    "Fleet": 572,
    "Flet": 573,
    "Fletcher": 574,
    "Flor": 575,
    "Flower": 576,
    "Flying": 577,
    "Follow": 578,
    "Following": 579,
    "Foot": 580,
    "Football": 581,
    "For": 582,
    "Force": 583,
    "Form": 584,
    "Four": 585,
    "Fran": 586,
    "France": 587,
    "Francis": 588,
    "Francisco": 589,
    "Frank": 590,
    "Fred": 591,
    "Freder": 592,
    "Frederick": 593,
    "French": 594,
    "From": 595,
    "Front": 596,
    "Fur": 597,
    "Furt": 598,
    "Furtado": 599,
    "Further": 600,
    "G": 601,
    "G.": 602,
    "GA": 603,
    "Gabbar": 604,
    "Gall": 605,
    "Gamb": 606,
    "Gambia": 607,
    "Game": 608,
    "Gar": 609,
    "Ge": 610,
    "Geastr": 611,
    "Geastrum": 612,
    "Gen": 613,
    "General": 614,
    "Geor": 615,
    "George": 616,
    "Ger": 617,
    "German": 618,
    "Germans": 619,
    "Germany": 620,
    "Giants": 621,
    "Gir": 622,
    "Girls": 623,
    "Gl": 624,
    "Glo": 625,
    "Go": 626,
    "Goat": 627,
    "God": 628,
    "Gold": 629,
    "Golden": 630,
    "Got": 631,
    "Government": 632,
    "Governor": 633,
    "Gr": 634,
    "Gram": 635,
    "Grammy": 636,
    "Grand": 637,
    "Great": 638,
    "Greek": 639,
    "Green": 640,
    "Greg": 641,
    "Gro": 642,
    "Group": 643,
    "Gu": 644,
    "Guard": 645,
    "Guardian": 646,
    "Gulf": 647,
    "H": 648,
    "H.": 649,
    "HL": 650,
    "Ha": 651,
    "Hall": 652,
    "Har": 653,
    "Hard": 654,
    "Hart": 655,
    "Hay": 656,
    "He": 657,
    "Head": 658,
    "Heaven": 659,
    "Hen": 660,
    "Henry": 661,
    "Her": 662,
    "Here": 663,
    "High": 664,
    "Hill": 665,
    "Hind": 666,
    "Hindu": 667,
    "His": 668,
    "Hist": 669,
    "History": 670,
    "Hockey": 671,
    "Hol": 672,
    "Home": 673,
    "Hon": 674,
    "Horn": 675,
    "Horus": 676,
    "Hot": 677,
    "House": 678,
    "How": 679,
    "However": 680,
    "Hum": 681,
    "Hun": 682,
    "Hung": 683,
    "Hungarian": 684,
    "Hy": 685,
    "I": 686,
    "II": 687,
    "III": 688,
    "If": 689,
    "Im": 690,
    "Imper": 691,
    "Imperial": 692,
    "In": 693,
    "Ind": 694,
    "India": 695,
    "Indian": 696,
    "Indu": 697,
    "Instead": 698,
    "Institute": 699,
    "Intern": 700,
    "International": 701,
    "Iron": 702,
    "Is": 703,
    "Isis": 704,
    "Island": 705,
    "It": 706,
    "Ital": 707,
    "Italian": 708,
    "Italy": 709,
    "Its": 710,
    "J": 711,
    "J.": 712,
    "Jack": 713,
    "Jackets": 714,
    "Jackson": 715,
    "Jai": 716,
    "Jam": 717,
    "James": 718,
    "Jan": 719,
    "January": 720,
    "Jap": 721,
    "Japan": 722,
    "Jar": 723,
    "Jeff": 724,
    "Jer": 725,
    "Jerzy": 726,
    "Jew": 727,
    "Jewish": 728,
    "Jo": 729,
    "Joh": 730,
    "John": 731,
    "Johnson": 732,
    "Jon": 733,
    "Jordan": 734,
    "Jose": 735,
    "Ju": 736,
    "Jul": 737,
    "Julian": 738,
    "July": 739,
    "June": 740,
    "K": 741,
    "K.": 742,
    "Kar": 743,
    "Karl": 744,
    "Ken": 745,
    "Kent": 746,
    "Kh": 747,
    "Khan": 748,
    "Kim": 749,
    "King": 750,
    "Kingdom": 751,
    "Kings": 752,
    "Kit": 753,
    "Ko": 754,
    "Kon": 755,
    "Kr": 756,
    "Krak": 757,
    "Kras": 758,
    "Krasnyi": 759,
    "Kur": 760,
    "Kurst": 761,
    "Kurstin": 762,
    "L": 763,
    "Lab": 764,
    "Lad": 765,
    "Lar": 766,
    "Later": 767,
    "Latin": 768,
    "Le": 769,
    "League": 770,
    "Leon": 771,
    "Lew": 772,
    "Light": 773,
    "Lightning": 774,
    "Little": 775,
    "Llosa": 776,
    "Lo": 777,
    "Lond": 778,
    "London": 779,
    "Long": 780,
    "Longacre": 781,
    "Loose": 782,
    "Los": 783,
    "Lou": 784,
    "Louis": 785,
    "Love": 786,
    "Low": 787,
    "Lowe": 788,
    "Lu": 789,
    "M": 790,
    "M.": 791,
    "MS": 792,
    "MVP": 793,
    "Ma": 794,
    "Mac": 795,
    "Mad": 796,
    "Madero": 797,
    "Mag": 798,
    "Magazine": 799,
    "Magn": 800,
    "Magnol": 801,
    "Magnolia": 802,
    "Mah": 803,
    "Major": 804,
    "Man": 805,
    "Many": 806,
    "Mar": 807,
    "March": 808,
    "Maria": 809,
    "Mark": 810,
    "Markgraf": 811,
    "Marsh": 812,
    "Mart": 813,
    "Mary": 814,
    "Mason": 815,
    "Master": 816,
    "Mat": 817,
    "Max": 818,
    "May": 819,
    "Mc": 820,
    "Me": 821,
    "Mean": 822,
    "Med": 823,
    "Media": 824,
    "Medway": 825,
    "Megaliths": 826,
    "Meh": 827,
    "Mem": 828,
    "Mes": 829,
    "Met": 830,
    "Mex": 831,
    "Mexico": 832,
    "Mich": 833,
    "Michael": 834,
    "Mid": 835,
    "Middle": 836,
    "Mike": 837,
    "Mil": 838,
    "Military": 839,
    "Min": 840,
    "Minis": 841,
    "Minister": 842,
    "Ministry": 843,
    "Mint": 844,
    "Mir": 845,
    "Miss": 846,
    "Mo": 847,
    "Mon": 848,
    "Mor": 849,
    "More": 850,
    "Morr": 851,
    "Morrison": 852,
    "Mort": 853,
    "Mortim": 854,
    "Mortimer": 855,
    "Most": 856,
    "Mumb": 857,
    "Mumbai": 858,
    "Mus": 859,
    "Museum": 860,
    "Music": 861,
    "My": 862,
    "Mys": 863,
    "Mysore": 864,
    "N": 865,
    "NB": 866,
    "NBA": 867,
    "NBC": 868,
    "NHL": 869,
    "NS": 870,
    "Nam": 871,
    "Nameless": 872,
    "Nash": 873,
    "Nat": 874,
    "Nathan": 875,
    "National": 876,
    "Navy": 877,
    "Naz": 878,
    "Nazi": 879,
    "Ne": 880,
    "Neolithic": 881,
    "New": 882,
    "Night": 883,
    "No": 884,
    "No.": 885,
    "Nor": 886,
    "North": 887,
    "Northern": 888,
    "Not": 889,
    "Nove": 890,
    "November": 891,
    "O": 892,
    "OT": 893,
    "Ob": 894,
    "Oc": 895,
    "Octo": 896,
    "October": 897,
    "Of": 898,
    "Off": 899,
    "Offic": 900,
    "Officer": 901,
    "Old": 902,
    "On": 903,
    "Once": 904,
    "One": 905,
    "Oper": 906,
    "Operations": 907,
    "Or": 908,
    "Origin": 909,
    "Orland": 910,
    "Orlando": 911,
    "Oro": 912,
    "Oroz": 913,
    "Orozco": 914,
    "Os": 915,
    "Osir": 916,
    "Osiris": 917,
    "Other": 918,
    "Out": 919,
    "Over": 920,
    "Ox": 921,
    "P": 922,
    "P.": 923,
    "Pa": 924,
    "Pak": 925,
    "Pakistan": 926,
    "Pal": 927,
    "Palin": 928,
    "Par": 929,
    "Park": 930,
    "Part": 931,
    "Parvati": 932,
    "Pat": 933,
    "Patter": 934,
    "Patterson": 935,
    "Paul": 936,
    "Pe": 937,
    "Pen": 938,
    "Pengu": 939,
    "Penguins": 940,
    "Penn": 941,
    "Pennsy": 942,
    "Pennsyl": 943,
    "Pennsylvan": 944,
    "Pennsylvania": 945,
    "People": 946,
    "Per": 947,
    "Person": 948,
    "Pet": 949,
    "Peter": 950,
    "Ph": 951,
    "Phil": 952,
    "Philadelphia": 953,
    "Pho": 954,
    "Phoen": 955,
    "Phoenix": 956,
    "Pigg": 957,
    "Piggott": 958,
    "Pil": 959,
    "Pl": 960,
    "Play": 961,
    "Player": 962,
    "Po": 963,
    "Pol": 964,
    "Poland": 965,
    "Poles": 966,
    "Police": 967,
    "Polish": 968,
    "Polit": 969,
    "Pop": 970,
    "Pope": 971,
    "Port": 972,
    "Portu": 973,
    "Portugu": 974,
    "Portuguese": 975,
    "Post": 976,
    "Pot": 977,
    "Pr": 978,
    "Pre": 979,
    "Pres": 980,
    "President": 981,
    "Press": 982,
    "Pri": 983,
    "Private": 984,
    "Pro": 985,
    "Produ": 986,
    "Project": 987,
    "Prom": 988,
    "Publ": 989,
    "Public": 990,
    "Q": 991,
    "Qu": 992,
    "Que": 993,
    "Queen": 994,
    "R": 995,
    "RA": 996,
    "RAA": 997,
    "RAAF": 998,
    "RI": 999,
    "Ra": 1000,
    "Rad": 1001,
    "Ram": 1002,
    "Rav": 1003,
    "Re": 1004,
    "Record": 1005,
    "Recording": 1006,
    "Records": 1007,
    "Red": 1008,
    "Reg": 1009,
    "Regiment": 1010,
    "Rel": 1011,
    "Republic": 1012,
    "Res": 1013,
    "Resear": 1014,
    "Research": 1015,
    "Rev": 1016,
    "Revol": 1017,
    "Revolution": 1018,
    "Rho": 1019,
    "Rhode": 1020,
    "Rich": 1021,
    "Richard": 1022,
    "Rick": 1023,
    "Rif": 1024,
    "River": 1025,
    "Ro": 1026,
    "Road": 1027,
    "Robert": 1028,
    "Rock": 1029,
    "Rod": 1030,
    "Rol": 1031,
    "Roman": 1032,
    "Rou": 1033,
    "Route": 1034,
    "Roy": 1035,
    "Royal": 1036,
    "Rud": 1037,
    "Rus": 1038,
    "Russ": 1039,
    "Russian": 1040,
    "S": 1041,
    "S.": 1042,
    "SMS": 1043,
    "SN": 1044,
    "SNL": 1045,
    "Sal": 1046,
    "Sam": 1047,
    "San": 1048,
    "Sanford": 1049,
    "Sap": 1050,
    "Saprang": 1051,
    "Sar": 1052,
    "Sav": 1053,
    "Savann": 1054,
    "Savannah": 1055,
    "Sb": 1056,
    "Sc": 1057,
    "Sch": 1058,
    "Sche": 1059,
    "Scheer": 1060,
    "School": 1061,
    "Scott": 1062,
    "Scre": 1063,
    "Se": 1064,
    "Sea": 1065,
    "Seas": 1066,
    "Second": 1067,
    "Secret": 1068,
    "Secretary": 1069,
    "Sen": 1070,
    "Sept": 1071,
    "September": 1072,
    "Ser": 1073,
    "Service": 1074,
    "Set": 1075,
    "Sevent": 1076,
    "Seventeenth": 1077,
    "Sever": 1078,
    "Several": 1079,
    "Sh": 1080,
    "She": 1081,
    "Shiva": 1082,
    "Shol": 1083,
    "Sholay": 1084,
    "Short": 1085,
    "Shortly": 1086,
    "Sil": 1087,
    "Sim": 1088,
    "Since": 1089,
    "Sing": 1090,
    "Singh": 1091,
    "Sipp": 1092,
    "Sippy": 1093,
    "Sir": 1094,
    "Sl": 1095,
    "Slayer": 1096,
    "Sm": 1097,
    "Smith": 1098,
    "So": 1099,
    "Soc": 1100,
    "Society": 1101,
    "Some": 1102,
    "Son": 1103,
    "Song": 1104,
    "Sou": 1105,
    "Sound": 1106,
    "South": 1107,
    "Sovi": 1108,
    "Soviet": 1109,
    "Soviets": 1110,
    "Sp": 1111,
    "Spe": 1112,
    "Squadron": 1113,
    "Sri": 1114,
    "St": 1115,
    "St.": 1116,
    "Stan": 1117,
    "Stansfield": 1118,
    "Star": 1119,
    "State": 1120,
    "States": 1121,
    "Station": 1122,
    "Ste": 1123,
    "Steve": 1124,
    "Stone": 1125,
    "Stones": 1126,
    "Str": 1127,
    "Strapping": 1128,
    "Street": 1129,
    "Stud": 1130,
    "Su": 1131,
    "Sum": 1132,
    "Sun": 1133,
    "Sup": 1134,
    "Sur": 1135,
    "Survey": 1136,
    "Sw": 1137,
    "Syn": 1138,
    "T": 1139,
    "TOT": 1140,
    "TV": 1141,
    "Tade": 1142,
    "Tadeusz": 1143,
    "Te": 1144,
    "Team": 1145,
    "Tele": 1146,
    "Temp": 1147,
    "Tenn": 1148,
    "Tennant": 1149,
    "Ter": 1150,
    "Territ": 1151,
    "Tess": 1152,
    "Tessa": 1153,
    "Th": 1154,
    "Thai": 1155,
    "Thailand": 1156,
    "Thak": 1157,
    "Thaksin": 1158,
    "Thakur": 1159,
    "That": 1160,
    "The": 1161,
    "Their": 1162,
    "There": 1163,
    "These": 1164,
    "They": 1165,
    "Third": 1166,
    "This": 1167,
    "Thomas": 1168,
    "Though": 1169,
    "Three": 1170,
    "Through": 1171,
    "Tim": 1172,
    "Timbal": 1173,
    "Timbaland": 1174,
    "Times": 1175,
    "To": 1176,
    "Tod": 1177,
    "Tom": 1178,
    "Top": 1179,
    "Tor": 1180,
    "Tot": 1181,
    "Tower": 1182,
    "Town": 1183,
    "Townsend": 1184,
    "Tr": 1185,
    "Tran": 1186,
    "Tre": 1187,
    "Treas": 1188,
    "Treasury": 1189,
    "Tree": 1190,
    "Tri": 1191,
    "Troph": 1192,
    "Trophy": 1193,
    "Tru": 1194,
    "Truj": 1195,
    "Trujillo": 1196,
    "Tur": 1197,
    "Twins": 1198,
    "Two": 1199,
    "Ty": 1200,
    "Type": 1201,
    "U": 1202,
    "U.S.": 1203,
    "UC": 1204,
    "UK": 1205,
    "UN": 1206,
    "UNES": 1207,
    "UNESCO": 1208,
    "US": 1209,
    "Uk": 1210,
    "Ukrain": 1211,
    "Un": 1212,
    "Under": 1213,
    "Underground": 1214,
    "Underne": 1215,
    "Underneath": 1216,
    "Union": 1217,
    "United": 1218,
    "University": 1219,
    "Up": 1220,
    "Update": 1221,
    "Upon": 1222,
    "Urania": 1223,
    "V": 1224,
    "VD": 1225,
    "VP": 1226,
    "Vai": 1227,
    "Val": 1228,
    "Valky": 1229,
    "Valkyria": 1230,
    "Valley": 1231,
    "Van": 1232,
    "Varg": 1233,
    "Vargas": 1234,
    "Vat": 1235,
    "Vatican": 1236,
    "Ve": 1237,
    "Veer": 1238,
    "Veeru": 1239,
    "Ver": 1240,
    "Vice": 1241,
    "Vict": 1242,
    "Victor": 1243,
    "Victoria": 1244,
    "Video": 1245,
    "W": 1246,
    "W.": 1247,
    "WAS": 1248,
    "WASP": 1249,
    "Wal": 1250,
    "Wales": 1251,
    "War": 1252,
    "Wars": 1253,
    "Warsaw": 1254,
    "Wash": 1255,
    "Washington": 1256,
    "Way": 1257,
    "We": 1258,
    "Week": 1259,
    "West": 1260,
    "Western": 1261,
    "Wh": 1262,
    "Wheel": 1263,
    "Wheeler": 1264,
    "When": 1265,
    "While": 1266,
    "White": 1267,
    "Wil": 1268,
    "Will": 1269,
    "William": 1270,
    "With": 1271,
    "Wiz": 1272,
    "Wizards": 1273,
    "Wood": 1274,
    "Work": 1275,
    "Works": 1276,
    "World": 1277,
    "Wrapped": 1278,
    "Writ": 1279,
    "Wy": 1280,
    "X": 1281,
    "Y": 1282,
    "Ye": 1283,
    "Year": 1284,
    "York": 1285,
    "You": 1286,
    "Young": 1287,
    "Z": 1288,
    "Zagre": 1289,
    "Zagreb": 1290,
    "Zap": 1291,
    "Zapata": 1292,
    "Zr": 1293,
    "Zrí": 1294,
    "Zrínyi": 1295,
    "[": 1296,
    "]": 1297,
    "^": 1298,
    "a": 1299,
    "ab": 1300,
    "aband": 1301,
    "abbar": 1302,
    "ability": 1303,
    "abl": 1304,
    "able": 1305,
    "abled": 1306,
    "ably": 1307,
    "abo": 1308,
    "about": 1309,
    "above": 1310,
    "abs": 1311,
    "absence": 1312,
    "ac": 1313,
    "academ": 1314,
    "academic": 1315,
    "acc": 1316,
    "accept": 1317,
    "accepted": 1318,
    "access": 1319,
    "accompl": 1320,
    "according": 1321,
    "accoun": 1322,
    "account": 1323,
    "accused": 1324,
    "ace": 1325,
    "aces": 1326,
    "ach": 1327,
    "ached": 1328,
    "achi": 1329,
    "achie": 1330,
    "achieved": 1331,
    "aching": 1332,
    "acid": 1333,
    "ack": 1334,
    "acks": 1335,
    "acles": 1336,
    "acqu": 1337,
    "acre": 1338,
    "across": 1339,
    "act": 1340,
    "acted": 1341,
    "acting": 1342,
    "action": 1343,
    "actions": 1344,
    "activ": 1345,
    "active": 1346,
    "activities": 1347,
    "activity": 1348,
    "actor": 1349,
    "actress": 1350,
    "acts": 1351,
    "actually": 1352,
    "acy": 1353,
    "ad": 1354,
    "adapt": 1355,
    "adapted": 1356,
    "add": 1357,
    "added": 1358,
    "addition": 1359,
    "additional": 1360,
    "ade": 1361,
    "aded": 1362,
    "adel": 1363,
    "adelph": 1364,
    "adelphia": 1365,
    "adem": 1366,
    "ades": 1367,
    "ading": 1368,
    "ado": 1369,
    "adop": 1370,
    "adv": 1371,
    "advance": 1372,
    "advanced": 1373,
    "advert": 1374,
    "ae": 1375,
    "ael": 1376,
    "aeolog": 1377,
    "aer": 1378,
    "aerodrom": 1379,
    "aerodrome": 1380,
    "aerodromes": 1381,
    "aeus": 1382,
    "af": 1383,
    "aff": 1384,
    "affected": 1385,
    "aft": 1386,
    "after": 1387,
    "ag": 1388,
    "again": 1389,
    "against": 1390,
    "agand": 1391,
    "aganda": 1392,
    "age": 1393,
    "aged": 1394,
    "agency": 1395,
    "ages": 1396,
    "aging": 1397,
    "agno": 1398,
    "ago": 1399,
    "agogue": 1400,
    "agre": 1401,
    "agreed": 1402,
    "ague": 1403,
    "ah": 1404,
    "ai": 1405,
    "aid": 1406,
    "aight": 1407,
    "aign": 1408,
    "ail": 1409,
    "ailand": 1410,
    "aily": 1411,
    "aim": 1412,
    "ain": 1413,
    "ained": 1414,
    "aining": 1415,
    "ains": 1416,
    "aint": 1417,
    "air": 1418,
    "aircraft": 1419,
    "airfields": 1420,
    "airman": 1421,
    "airports": 1422,
    "airspace": 1423,
    "aj": 1424,
    "ak": 1425,
    "ake": 1426,
    "aked": 1427,
    "aken": 1428,
    "aker": 1429,
    "akes": 1430,
    "aking": 1431,
    "al": 1432,
    "album": 1433,
    "albums": 1434,
    "ald": 1435,
    "ale": 1436,
    "aled": 1437,
    "ales": 1438,
    "alin": 1439,
    "ality": 1440,
    "alk": 1441,
    "alky": 1442,
    "all": 1443,
    "alle": 1444,
    "alled": 1445,
    "alleg": 1446,
    "allow": 1447,
    "allowed": 1448,
    "allowing": 1449,
    "ally": 1450,
    "almost": 1451,
    "alone": 1452,
    "along": 1453,
    "alongside": 1454,
    "already": 1455,
    "als": 1456,
    "also": 1457,
    "altern": 1458,
    "alth": 1459,
    "although": 1460,
    "alty": 1461,
    "always": 1462,
    "aly": 1463,
    "am": 1464,
    "ama": 1465,
    "amate": 1466,
    "amateur": 1467,
    "amb": 1468,
    "ame": 1469,
    "amed": 1470,
    "ament": 1471,
    "ames": 1472,
    "amid": 1473,
    "ammun": 1474,
    "ammunition": 1475,
    "among": 1476,
    "amoun": 1477,
    "amount": 1478,
    "amp": 1479,
    "ampion": 1480,
    "ampionship": 1481,
    "ample": 1482,
    "an": 1483,
    "ana": 1484,
    "analy": 1485,
    "analysis": 1486,
    "ance": 1487,
    "ances": 1488,
    "anch": 1489,
    "ancient": 1490,
    "and": 1491,
    "andatory": 1492,
    "anded": 1493,
    "ander": 1494,
    "ands": 1495,
    "ane": 1496,
    "anes": 1497,
    "ang": 1498,
    "anger": 1499,
    "angers": 1500,
    "anim": 1501,
    "ank": 1502,
    "anka": 1503,
    "anks": 1504,
    "ann": 1505,
    "annel": 1506,
    "announ": 1507,
    "announced": 1508,
    "annual": 1509,
    "another": 1510,
    "ans": 1511,
    "ansfield": 1512,
    "ant": 1513,
    "anta": 1514,
    "anted": 1515,
    "anth": 1516,
    "anti": 1517,
    "antic": 1518,
    "antim": 1519,
    "antimon": 1520,
    "antimony": 1521,
    "ants": 1522,
    "any": 1523,
    "anything": 1524,
    "ap": 1525,
    "apart": 1526,
    "ape": 1527,
    "aped": 1528,
    "aper": 1529,
    "apers": 1530,
    "aph": 1531,
    "app": 1532,
    "apparent": 1533,
    "appe": 1534,
    "appear": 1535,
    "appearance": 1536,
    "appearances": 1537,
    "appeared": 1538,
    "appearing": 1539,
    "apping": 1540,
    "appl": 1541,
    "applied": 1542,
    "appoint": 1543,
    "appointed": 1544,
    "appro": 1545,
    "approach": 1546,
    "approximately": 1547,
    "aps": 1548,
    "apsed": 1549,
    "apt": 1550,
    "apted": 1551,
    "ar": 1552,
    "ara": 1553,
    "arch": 1554,
    "archaeolog": 1555,
    "archaeological": 1556,
    "archaeologist": 1557,
    "archaeologists": 1558,
    "archaeology": 1559,
    "archite": 1560,
    "architect": 1561,
    "ard": 1562,
    "ards": 1563,
    "are": 1564,
    "area": 1565,
    "areas": 1566,
    "ared": 1567,
    "aren": 1568,
    "arent": 1569,
    "arg": 1570,
    "argu": 1571,
    "aria": 1572,
    "arian": 1573,
    "aries": 1574,
    "arily": 1575,
    "aring": 1576,
    "ark": 1577,
    "arker": 1578,
    "arly": 1579,
    "arm": 1580,
    "armed": 1581,
    "armor": 1582,
    "armored": 1583,
    "arms": 1584,
    "army": 1585,
    "around": 1586,
    "arr": 1587,
    "arrang": 1588,
    "arranged": 1589,
    "arrest": 1590,
    "arrested": 1591,
    "arrived": 1592,
    "ars": 1593,
    "arsen": 1594,
    "arsenal": 1595,
    "art": 1596,
    "arth": 1597,
    "article": 1598,
    "artist": 1599,
    "artists": 1600,
    "arts": 1601,
    "ary": 1602,
    "as": 1603,
    "asc": 1604,
    "ase": 1605,
    "ased": 1606,
    "ases": 1607,
    "ash": 1608,
    "asing": 1609,
    "asion": 1610,
    "ask": 1611,
    "asked": 1612,
    "asket": 1613,
    "asketball": 1614,
    "ason": 1615,
    "aspect": 1616,
    "aspects": 1617,
    "ass": 1618,
    "assass": 1619,
    "assassination": 1620,
    "assemb": 1621,
    "assembled": 1622,
    "assigned": 1623,
    "assist": 1624,
    "assists": 1625,
    "associ": 1626,
    "associated": 1627,
    "association": 1628,
    "assumed": 1629,
    "ast": 1630,
    "aster": 1631,
    "astern": 1632,
    "astic": 1633,
    "astr": 1634,
    "at": 1635,
    "ata": 1636,
    "atch": 1637,
    "ate": 1638,
    "ated": 1639,
    "ateg": 1640,
    "ately": 1641,
    "ater": 1642,
    "ates": 1643,
    "ath": 1644,
    "athan": 1645,
    "ather": 1646,
    "ati": 1647,
    "atic": 1648,
    "atin": 1649,
    "ating": 1650,
    "ation": 1651,
    "ational": 1652,
    "ations": 1653,
    "ative": 1654,
    "atively": 1655,
    "atives": 1656,
    "ato": 1657,
    "aton": 1658,
    "ator": 1659,
    "ators": 1660,
    "atory": 1661,
    "atro": 1662,
    "ats": 1663,
    "att": 1664,
    "attack": 1665,
    "attacks": 1666,
    "attempt": 1667,
    "attempted": 1668,
    "attempts": 1669,
    "attend": 1670,
    "attended": 1671,
    "attention": 1672,
    "atter": 1673,
    "attr": 1674,
    "attribut": 1675,
    "attributed": 1676,
    "ature": 1677,
    "atus": 1678,
    "au": 1679,
    "aud": 1680,
    "audev": 1681,
    "audience": 1682,
    "augh": 1683,
    "ault": 1684,
    "aut": 1685,
    "author": 1686,
    "authorities": 1687,
    "authority": 1688,
    "av": 1689,
    "avail": 1690,
    "available": 1691,
    "aval": 1692,
    "ave": 1693,
    "aven": 1694,
    "aver": 1695,
    "average": 1696,
    "averaged": 1697,
    "aves": 1698,
    "avi": 1699,
    "aviation": 1700,
    "aving": 1701,
    "avy": 1702,
    "aw": 1703,
    "awa": 1704,
    "award": 1705,
    "awarded": 1706,
    "awards": 1707,
    "aware": 1708,
    "away": 1709,
    "awn": 1710,
    "ax": 1711,
    "ay": 1712,
    "aya": 1713,
    "aying": 1714,
    "ays": 1715,
    "az": 1716,
    "azine": 1717,
    "azz": 1718,
    "b": 1719,
    "ba": 1720,
    "back": 1721,
    "background": 1722,
    "bad": 1723,
    "bal": 1724,
    "ball": 1725,
    "ban": 1726,
    "band": 1727,
    "bann": 1728,
    "bar": 1729,
    "barrow": 1730,
    "bas": 1731,
    "base": 1732,
    "baseball": 1733,
    "based": 1734,
    "basic": 1735,
    "basis": 1736,
    "basketball": 1737,
    "bass": 1738,
    "batt": 1739,
    "batter": 1740,
    "batteries": 1741,
    "battle": 1742,
    "battles": 1743,
    "battleship": 1744,
    "battleships": 1745,
    "be": 1746,
    "beat": 1747,
    "became": 1748,
    "because": 1749,
    "become": 1750,
    "becomes": 1751,
    "becoming": 1752,
    "bed": 1753,
    "been": 1754,
    "before": 1755,
    "began": 1756,
    "begin": 1757,
    "beginning": 1758,
    "beh": 1759,
    "behavi": 1760,
    "behind": 1761,
    "being": 1762,
    "bel": 1763,
    "beli": 1764,
    "belief": 1765,
    "believed": 1766,
    "bell": 1767,
    "belong": 1768,
    "below": 1769,
    "ben": 1770,
    "benef": 1771,
    "ber": 1772,
    "bers": 1773,
    "bert": 1774,
    "bes": 1775,
    "best": 1776,
    "bet": 1777,
    "better": 1778,
    "betw": 1779,
    "between": 1780,
    "bi": 1781,
    "big": 1782,
    "bill": 1783,
    "billion": 1784,
    "bing": 1785,
    "bir": 1786,
    "birth": 1787,
    "bl": 1788,
    "black": 1789,
    "ble": 1790,
    "block": 1791,
    "blockade": 1792,
    "bo": 1793,
    "board": 1794,
    "boat": 1795,
    "boats": 1796,
    "bod": 1797,
    "bodies": 1798,
    "body": 1799,
    "bomb": 1800,
    "bombard": 1801,
    "bon": 1802,
    "bond": 1803,
    "bone": 1804,
    "bones": 1805,
    "book": 1806,
    "books": 1807,
    "bor": 1808,
    "border": 1809,
    "born": 1810,
    "bot": 1811,
    "both": 1812,
    "bottom": 1813,
    "bound": 1814,
    "bow": 1815,
    "box": 1816,
    "br": 1817,
    "bre": 1818,
    "break": 1819,
    "bri": 1820,
    "bridge": 1821,
    "brief": 1822,
    "brig": 1823,
    "bring": 1824,
    "brit": 1825,
    "bro": 1826,
    "broad": 1827,
    "broke": 1828,
    "broken": 1829,
    "brother": 1830,
    "brough": 1831,
    "brought": 1832,
    "brown": 1833,
    "bru": 1834,
    "bu": 1835,
    "bud": 1836,
    "budget": 1837,
    "build": 1838,
    "building": 1839,
    "buildings": 1840,
    "built": 1841,
    "bul": 1842,
    "bum": 1843,
    "bur": 1844,
    "burn": 1845,
    "bury": 1846,
    "business": 1847,
    "but": 1848,
    "by": 1849,
    "c": 1850,
    "ca": 1851,
    "cal": 1852,
    "caliber": 1853,
    "call": 1854,
    "called": 1855,
    "calling": 1856,
    "cam": 1857,
    "came": 1858,
    "camera": 1859,
    "camp": 1860,
    "campaign": 1861,
    "can": 1862,
    "cancer": 1863,
    "cand": 1864,
    "candid": 1865,
    "candidate": 1866,
    "cap": 1867,
    "capable": 1868,
    "capital": 1869,
    "capt": 1870,
    "captain": 1871,
    "captured": 1872,
    "car": 1873,
    "carbon": 1874,
    "carbonaria": 1875,
    "cards": 1876,
    "care": 1877,
    "career": 1878,
    "carried": 1879,
    "carry": 1880,
    "carrying": 1881,
    "carved": 1882,
    "cas": 1883,
    "case": 1884,
    "cases": 1885,
    "cast": 1886,
    "cat": 1887,
    "categ": 1888,
    "cation": 1889,
    "cau": 1890,
    "cause": 1891,
    "caused": 1892,
    "cav": 1893,
    "cave": 1894,
    "caves": 1895,
    "ce": 1896,
    "ced": 1897,
    "ceed": 1898,
    "cel": 1899,
    "cele": 1900,
    "cell": 1901,
    "cent": 1902,
    "center": 1903,
    "central": 1904,
    "century": 1905,
    "cept": 1906,
    "ception": 1907,
    "cer": 1908,
    "cere": 1909,
    "ceremon": 1910,
    "ceremony": 1911,
    "cert": 1912,
    "certain": 1913,
    "certified": 1914,
    "ces": 1915,
    "cess": 1916,
    "ch": 1917,
    "cha": 1918,
    "chall": 1919,
    "challeng": 1920,
    "cham": 1921,
    "chamber": 1922,
    "championship": 1923,
    "chan": 1924,
    "chance": 1925,
    "chang": 1926,
    "change": 1927,
    "changed": 1928,
    "changes": 1929,
    "chap": 1930,
    "chapel": 1931,
    "char": 1932,
    "charac": 1933,
    "character": 1934,
    "characteristics": 1935,
    "characters": 1936,
    "charge": 1937,
    "chart": 1938,
    "charts": 1939,
    "che": 1940,
    "ched": 1941,
    "chem": 1942,
    "chemical": 1943,
    "cher": 1944,
    "ches": 1945,
    "chief": 1946,
    "child": 1947,
    "children": 1948,
    "chn": 1949,
    "cho": 1950,
    "choice": 1951,
    "chol": 1952,
    "chool": 1953,
    "ci": 1954,
    "cial": 1955,
    "cient": 1956,
    "cil": 1957,
    "cinem": 1958,
    "cing": 1959,
    "cipl": 1960,
    "circ": 1961,
    "circle": 1962,
    "circum": 1963,
    "cis": 1964,
    "cited": 1965,
    "cities": 1966,
    "citing": 1967,
    "citiz": 1968,
    "city": 1969,
    "civil": 1970,
    "ck": 1971,
    "cl": 1972,
    "claim": 1973,
    "claimed": 1974,
    "class": 1975,
    "classes": 1976,
    "classic": 1977,
    "cle": 1978,
    "clear": 1979,
    "clo": 1980,
    "clock": 1981,
    "close": 1982,
    "closed": 1983,
    "closely": 1984,
    "club": 1985,
    "cm": 1986,
    "co": 1987,
    "coach": 1988,
    "coal": 1989,
    "coast": 1990,
    "cock": 1991,
    "coin": 1992,
    "coins": 1993,
    "col": 1994,
    "coll": 1995,
    "collabor": 1996,
    "collaborated": 1997,
    "collaboration": 1998,
    "colle": 1999,
    "collect": 2000,
    "collected": 2001,
    "collection": 2002,
    "college": 2003,
    "color": 2004,
    "com": 2005,
    "comb": 2006,
    "combined": 2007,
    "come": 2008,
    "comed": 2009,
    "comedy": 2010,
    "comes": 2011,
    "coming": 2012,
    "comm": 2013,
    "command": 2014,
    "commander": 2015,
    "comment": 2016,
    "commented": 2017,
    "commercial": 2018,
    "commiss": 2019,
    "commission": 2020,
    "commissioned": 2021,
    "committee": 2022,
    "common": 2023,
    "commun": 2024,
    "community": 2025,
    "comp": 2026,
    "compan": 2027,
    "company": 2028,
    "compared": 2029,
    "compet": 2030,
    "competition": 2031,
    "compl": 2032,
    "comple": 2033,
    "complete": 2034,
    "completed": 2035,
    "completely": 2036,
    "complex": 2037,
    "compos": 2038,
    "composed": 2039,
    "compounds": 2040,
    "con": 2041,
    "concent": 2042,
    "concept": 2043,
    "concer": 2044,
    "concerned": 2045,
    "concl": 2046,
    "concluded": 2047,
    "cond": 2048,
    "condition": 2049,
    "conditions": 2050,
    "condu": 2051,
    "conducted": 2052,
    "conf": 2053,
    "confir": 2054,
    "conne": 2055,
    "connected": 2056,
    "conom": 2057,
    "cons": 2058,
    "conse": 2059,
    "consecutive": 2060,
    "consid": 2061,
    "consider": 2062,
    "considered": 2063,
    "consist": 2064,
    "consisted": 2065,
    "consisting": 2066,
    "consists": 2067,
    "constitut": 2068,
    "constru": 2069,
    "constructed": 2070,
    "construction": 2071,
    "cont": 2072,
    "containing": 2073,
    "content": 2074,
    "contin": 2075,
    "continent": 2076,
    "continu": 2077,
    "continue": 2078,
    "continued": 2079,
    "continues": 2080,
    "contr": 2081,
    "contract": 2082,
    "contrast": 2083,
    "contribut": 2084,
    "control": 2085,
    "controlled": 2086,
    "conv": 2087,
    "convent": 2088,
    "conver": 2089,
    "converted": 2090,
    "cop": 2091,
    "copies": 2092,
    "cor": 2093,
    "cord": 2094,
    "cording": 2095,
    "corpor": 2096,
    "correspond": 2097,
    "cost": 2098,
    "cou": 2099,
    "could": 2100,
    "coun": 2101,
    "counter": 2102,
    "country": 2103,
    "coup": 2104,
    "cour": 2105,
    "course": 2106,
    "court": 2107,
    "cover": 2108,
    "covered": 2109,
    "cr": 2110,
    "craft": 2111,
    "crash": 2112,
    "cre": 2113,
    "create": 2114,
    "created": 2115,
    "creating": 2116,
    "creation": 2117,
    "creator": 2118,
    "cred": 2119,
    "credited": 2120,
    "cret": 2121,
    "crew": 2122,
    "cri": 2123,
    "crit": 2124,
    "critic": 2125,
    "critical": 2126,
    "criticised": 2127,
    "criticism": 2128,
    "critics": 2129,
    "cross": 2130,
    "crow": 2131,
    "cru": 2132,
    "cruis": 2133,
    "cruiser": 2134,
    "cruisers": 2135,
    "ct": 2136,
    "cted": 2137,
    "cting": 2138,
    "ction": 2139,
    "ctions": 2140,
    "ctor": 2141,
    "cts": 2142,
    "cult": 2143,
    "cultural": 2144,
    "culture": 2145,
    "cup": 2146,
    "cur": 2147,
    "curren": 2148,
    "current": 2149,
    "cus": 2150,
    "cussion": 2151,
    "cut": 2152,
    "cutive": 2153,
    "cy": 2154,
    "cycl": 2155,
    "d": 2156,
    "da": 2157,
    "daily": 2158,
    "dam": 2159,
    "damage": 2160,
    "damaged": 2161,
    "dance": 2162,
    "dark": 2163,
    "data": 2164,
    "date": 2165,
    "dated": 2166,
    "dating": 2167,
    "daugh": 2168,
    "daughter": 2169,
    "day": 2170,
    "days": 2171,
    "de": 2172,
    "dead": 2173,
    "deal": 2174,
    "death": 2175,
    "deb": 2176,
    "debut": 2177,
    "debuted": 2178,
    "dec": 2179,
    "decades": 2180,
    "decided": 2181,
    "decision": 2182,
    "deck": 2183,
    "decl": 2184,
    "declared": 2185,
    "declined": 2186,
    "ded": 2187,
    "dedicated": 2188,
    "deemed": 2189,
    "deep": 2190,
    "def": 2191,
    "defe": 2192,
    "defeat": 2193,
    "defense": 2194,
    "defin": 2195,
    "deities": 2196,
    "deity": 2197,
    "delay": 2198,
    "deli": 2199,
    "dem": 2200,
    "demo": 2201,
    "demon": 2202,
    "demonstr": 2203,
    "den": 2204,
    "denied": 2205,
    "denomin": 2206,
    "denomination": 2207,
    "dep": 2208,
    "depart": 2209,
    "depend": 2210,
    "depict": 2211,
    "depicted": 2212,
    "depicting": 2213,
    "depicts": 2214,
    "deploy": 2215,
    "deprec": 2216,
    "der": 2217,
    "des": 2218,
    "descri": 2219,
    "described": 2220,
    "design": 2221,
    "designated": 2222,
    "designed": 2223,
    "despite": 2224,
    "dess": 2225,
    "dest": 2226,
    "destroy": 2227,
    "destroyed": 2228,
    "destroyers": 2229,
    "destruction": 2230,
    "detail": 2231,
    "details": 2232,
    "determin": 2233,
    "dev": 2234,
    "develo": 2235,
    "develop": 2236,
    "developed": 2237,
    "development": 2238,
    "di": 2239,
    "diagno": 2240,
    "dial": 2241,
    "diame": 2242,
    "diameter": 2243,
    "dict": 2244,
    "dictator": 2245,
    "did": 2246,
    "didn": 2247,
    "died": 2248,
    "dies": 2249,
    "dif": 2250,
    "differ": 2251,
    "different": 2252,
    "difficult": 2253,
    "din": 2254,
    "dire": 2255,
    "direct": 2256,
    "directed": 2257,
    "directly": 2258,
    "director": 2259,
    "dis": 2260,
    "disc": 2261,
    "discover": 2262,
    "discovered": 2263,
    "discovery": 2264,
    "discus": 2265,
    "display": 2266,
    "dist": 2267,
    "distance": 2268,
    "distinct": 2269,
    "distingu": 2270,
    "distribut": 2271,
    "distribution": 2272,
    "div": 2273,
    "divided": 2274,
    "divine": 2275,
    "dle": 2276,
    "do": 2277,
    "doc": 2278,
    "document": 2279,
    "does": 2280,
    "doing": 2281,
    "dol": 2282,
    "dollar": 2283,
    "dollars": 2284,
    "dom": 2285,
    "domin": 2286,
    "don": 2287,
    "done": 2288,
    "door": 2289,
    "dou": 2290,
    "double": 2291,
    "down": 2292,
    "dr": 2293,
    "draft": 2294,
    "drama": 2295,
    "draw": 2296,
    "dread": 2297,
    "dreadn": 2298,
    "drew": 2299,
    "dri": 2300,
    "dro": 2301,
    "drop": 2302,
    "dru": 2303,
    "drum": 2304,
    "dry": 2305,
    "du": 2306,
    "dub": 2307,
    "due": 2308,
    "duo": 2309,
    "during": 2310,
    "dut": 2311,
    "e": 2312,
    "e.": 2313,
    "e.g": 2314,
    "e.g.": 2315,
    "each": 2316,
    "ear": 2317,
    "earl": 2318,
    "earlier": 2319,
    "early": 2320,
    "earn": 2321,
    "earned": 2322,
    "earth": 2323,
    "earthstar": 2324,
    "eas": 2325,
    "east": 2326,
    "eastern": 2327,
    "ec": 2328,
    "econom": 2329,
    "economic": 2330,
    "ed": 2331,
    "edition": 2332,
    "educ": 2333,
    "education": 2334,
    "ee": 2335,
    "een": 2336,
    "eenth": 2337,
    "ef": 2338,
    "eff": 2339,
    "effect": 2340,
    "effects": 2341,
    "effort": 2342,
    "eh": 2343,
    "eight": 2344,
    "either": 2345,
    "ek": 2346,
    "el": 2347,
    "ele": 2348,
    "elect": 2349,
    "election": 2350,
    "elections": 2351,
    "element": 2352,
    "elements": 2353,
    "eles": 2354,
    "eless": 2355,
    "elimin": 2356,
    "ell": 2357,
    "elled": 2358,
    "ellow": 2359,
    "elly": 2360,
    "els": 2361,
    "else": 2362,
    "em": 2363,
    "eman": 2364,
    "emb": 2365,
    "ember": 2366,
    "emed": 2367,
    "ement": 2368,
    "emer": 2369,
    "emerged": 2370,
    "emot": 2371,
    "emp": 2372,
    "emphas": 2373,
    "empl": 2374,
    "emples": 2375,
    "employ": 2376,
    "employed": 2377,
    "empt": 2378,
    "ems": 2379,
    "en": 2380,
    "ence": 2381,
    "enced": 2382,
    "ences": 2383,
    "encour": 2384,
    "ency": 2385,
    "end": 2386,
    "ended": 2387,
    "ender": 2388,
    "ending": 2389,
    "ends": 2390,
    "ene": 2391,
    "ened": 2392,
    "enem": 2393,
    "enemy": 2394,
    "eng": 2395,
    "engaged": 2396,
    "engine": 2397,
    "ening": 2398,
    "enlisted": 2399,
    "enn": 2400,
    "enough": 2401,
    "ens": 2402,
    "ense": 2403,
    "ensive": 2404,
    "ent": 2405,
    "enter": 2406,
    "entered": 2407,
    "ential": 2408,
    "ention": 2409,
    "entire": 2410,
    "ently": 2411,
    "entran": 2412,
    "entrance": 2413,
    "ents": 2414,
    "environment": 2415,
    "environmental": 2416,
    "ep": 2417,
    "eper": 2418,
    "epis": 2419,
    "episode": 2420,
    "equ": 2421,
    "equip": 2422,
    "equipment": 2423,
    "equivalent": 2424,
    "er": 2425,
    "era": 2426,
    "eral": 2427,
    "erate": 2428,
    "eration": 2429,
    "ere": 2430,
    "ered": 2431,
    "ergy": 2432,
    "ering": 2433,
    "ern": 2434,
    "ero": 2435,
    "erous": 2436,
    "err": 2437,
    "erry": 2438,
    "ers": 2439,
    "ership": 2440,
    "erson": 2441,
    "erted": 2442,
    "ery": 2443,
    "es": 2444,
    "esc": 2445,
    "escap": 2446,
    "ese": 2447,
    "especial": 2448,
    "especially": 2449,
    "ess": 2450,
    "essential": 2451,
    "est": 2452,
    "establ": 2453,
    "establish": 2454,
    "established": 2455,
    "establishment": 2456,
    "ester": 2457,
    "estern": 2458,
    "estim": 2459,
    "estimated": 2460,
    "esty": 2461,
    "et": 2462,
    "eter": 2463,
    "eth": 2464,
    "etric": 2465,
    "ets": 2466,
    "ett": 2467,
    "ety": 2468,
    "ev": 2469,
    "eve": 2470,
    "eved": 2471,
    "even": 2472,
    "event": 2473,
    "events": 2474,
    "eventually": 2475,
    "ever": 2476,
    "every": 2477,
    "evidence": 2478,
    "ew": 2479,
    "eway": 2480,
    "ex": 2481,
    "exam": 2482,
    "example": 2483,
    "examples": 2484,
    "excav": 2485,
    "excavation": 2486,
    "excavations": 2487,
    "except": 2488,
    "excl": 2489,
    "exclus": 2490,
    "exe": 2491,
    "execut": 2492,
    "exhib": 2493,
    "exist": 2494,
    "existence": 2495,
    "existing": 2496,
    "exit": 2497,
    "exp": 2498,
    "expanded": 2499,
    "expected": 2500,
    "exper": 2501,
    "experi": 2502,
    "experience": 2503,
    "experienced": 2504,
    "expl": 2505,
    "explained": 2506,
    "expressed": 2507,
    "ext": 2508,
    "extended": 2509,
    "extens": 2510,
    "extensive": 2511,
    "extreme": 2512,
    "exts": 2513,
    "ey": 2514,
    "eye": 2515,
    "ez": 2516,
    "f": 2517,
    "fa": 2518,
    "fac": 2519,
    "face": 2520,
    "faced": 2521,
    "facilities": 2522,
    "fact": 2523,
    "fail": 2524,
    "failed": 2525,
    "fair": 2526,
    "fal": 2527,
    "fall": 2528,
    "fam": 2529,
    "family": 2530,
    "famous": 2531,
    "fan": 2532,
    "fans": 2533,
    "fantry": 2534,
    "far": 2535,
    "fare": 2536,
    "father": 2537,
    "fav": 2538,
    "favor": 2539,
    "favorite": 2540,
    "fe": 2541,
    "fear": 2542,
    "feat": 2543,
    "feature": 2544,
    "featured": 2545,
    "features": 2546,
    "featuring": 2547,
    "fect": 2548,
    "fected": 2549,
    "fed": 2550,
    "federal": 2551,
    "feel": 2552,
    "feet": 2553,
    "fel": 2554,
    "fell": 2555,
    "fellow": 2556,
    "felt": 2557,
    "fem": 2558,
    "female": 2559,
    "fer": 2560,
    "ference": 2561,
    "ferred": 2562,
    "fers": 2563,
    "fest": 2564,
    "few": 2565,
    "ff": 2566,
    "fic": 2567,
    "fict": 2568,
    "fictional": 2569,
    "ficult": 2570,
    "field": 2571,
    "fields": 2572,
    "fif": 2573,
    "fifth": 2574,
    "fig": 2575,
    "fight": 2576,
    "fighting": 2577,
    "figure": 2578,
    "figures": 2579,
    "fill": 2580,
    "film": 2581,
    "filmed": 2582,
    "films": 2583,
    "fin": 2584,
    "final": 2585,
    "finally": 2586,
    "finan": 2587,
    "financial": 2588,
    "find": 2589,
    "finish": 2590,
    "finished": 2591,
    "finishing": 2592,
    "fir": 2593,
    "fire": 2594,
    "fired": 2595,
    "first": 2596,
    "five": 2597,
    "fix": 2598,
    "fixed": 2599,
    "fl": 2600,
    "flank": 2601,
    "fle": 2602,
    "fleet": 2603,
    "flict": 2604,
    "flight": 2605,
    "flights": 2606,
    "flint": 2607,
    "flo": 2608,
    "flood": 2609,
    "flooding": 2610,
    "floor": 2611,
    "flow": 2612,
    "flu": 2613,
    "fly": 2614,
    "flying": 2615,
    "foc": 2616,
    "focus": 2617,
    "folk": 2618,
    "follow": 2619,
    "followed": 2620,
    "following": 2621,
    "foot": 2622,
    "football": 2623,
    "for": 2624,
    "force": 2625,
    "forced": 2626,
    "forces": 2627,
    "ford": 2628,
    "fore": 2629,
    "foreign": 2630,
    "forest": 2631,
    "form": 2632,
    "formal": 2633,
    "forman": 2634,
    "formation": 2635,
    "formed": 2636,
    "former": 2637,
    "forms": 2638,
    "fort": 2639,
    "forts": 2640,
    "forward": 2641,
    "found": 2642,
    "founded": 2643,
    "four": 2644,
    "fourth": 2645,
    "fox": 2646,
    "fr": 2647,
    "frag": 2648,
    "fragilis": 2649,
    "franch": 2650,
    "franchise": 2651,
    "fre": 2652,
    "free": 2653,
    "freeway": 2654,
    "frequ": 2655,
    "fri": 2656,
    "friend": 2657,
    "friends": 2658,
    "from": 2659,
    "front": 2660,
    "fruit": 2661,
    "ft": 2662,
    "ful": 2663,
    "full": 2664,
    "fully": 2665,
    "fun": 2666,
    "function": 2667,
    "fund": 2668,
    "funding": 2669,
    "fung": 2670,
    "fungus": 2671,
    "fur": 2672,
    "further": 2673,
    "fut": 2674,
    "future": 2675,
    "fü": 2676,
    "g": 2677,
    "ga": 2678,
    "gain": 2679,
    "gal": 2680,
    "galiths": 2681,
    "game": 2682,
    "gameplay": 2683,
    "games": 2684,
    "gan": 2685,
    "gar": 2686,
    "gated": 2687,
    "gather": 2688,
    "gave": 2689,
    "ge": 2690,
    "ged": 2691,
    "gen": 2692,
    "gency": 2693,
    "gener": 2694,
    "general": 2695,
    "generally": 2696,
    "generation": 2697,
    "genus": 2698,
    "ger": 2699,
    "ges": 2700,
    "gest": 2701,
    "get": 2702,
    "getting": 2703,
    "gg": 2704,
    "ggest": 2705,
    "gh": 2706,
    "gia": 2707,
    "gin": 2708,
    "gins": 2709,
    "gir": 2710,
    "girl": 2711,
    "giv": 2712,
    "give": 2713,
    "given": 2714,
    "giving": 2715,
    "gl": 2716,
    "glass": 2717,
    "gment": 2718,
    "go": 2719,
    "goal": 2720,
    "goals": 2721,
    "god": 2722,
    "goddess": 2723,
    "goddesses": 2724,
    "gods": 2725,
    "going": 2726,
    "gold": 2727,
    "good": 2728,
    "got": 2729,
    "govern": 2730,
    "government": 2731,
    "governor": 2732,
    "gr": 2733,
    "grad": 2734,
    "grade": 2735,
    "gradu": 2736,
    "graf": 2737,
    "gram": 2738,
    "grand": 2739,
    "grap": 2740,
    "graph": 2741,
    "graphy": 2742,
    "gre": 2743,
    "great": 2744,
    "greater": 2745,
    "greatest": 2746,
    "greatly": 2747,
    "gress": 2748,
    "grew": 2749,
    "gro": 2750,
    "ground": 2751,
    "group": 2752,
    "groups": 2753,
    "grow": 2754,
    "growth": 2755,
    "gs": 2756,
    "gu": 2757,
    "guard": 2758,
    "guit": 2759,
    "guitar": 2760,
    "gun": 2761,
    "guns": 2762,
    "gust": 2763,
    "gy": 2764,
    "h": 2765,
    "ha": 2766,
    "hab": 2767,
    "habit": 2768,
    "had": 2769,
    "hair": 2770,
    "hal": 2771,
    "half": 2772,
    "hall": 2773,
    "ham": 2774,
    "hand": 2775,
    "hands": 2776,
    "happ": 2777,
    "haps": 2778,
    "har": 2779,
    "hard": 2780,
    "has": 2781,
    "have": 2782,
    "having": 2783,
    "he": 2784,
    "head": 2785,
    "health": 2786,
    "heav": 2787,
    "heavily": 2788,
    "heavy": 2789,
    "heel": 2790,
    "height": 2791,
    "hel": 2792,
    "held": 2793,
    "help": 2794,
    "helped": 2795,
    "hen": 2796,
    "her": 2797,
    "hero": 2798,
    "herself": 2799,
    "hi": 2800,
    "hib": 2801,
    "hier": 2802,
    "high": 2803,
    "higher": 2804,
    "highest": 2805,
    "highlight": 2806,
    "highly": 2807,
    "highway": 2808,
    "hill": 2809,
    "him": 2810,
    "himself": 2811,
    "hip": 2812,
    "hired": 2813,
    "his": 2814,
    "hist": 2815,
    "histor": 2816,
    "historian": 2817,
    "historic": 2818,
    "historical": 2819,
    "history": 2820,
    "hit": 2821,
    "ho": 2822,
    "hold": 2823,
    "holding": 2824,
    "holds": 2825,
    "holiday": 2826,
    "hom": 2827,
    "home": 2828,
    "homes": 2829,
    "hon": 2830,
    "honor": 2831,
    "hood": 2832,
    "hop": 2833,
    "hoped": 2834,
    "hor": 2835,
    "host": 2836,
    "hosted": 2837,
    "hour": 2838,
    "hours": 2839,
    "hous": 2840,
    "house": 2841,
    "how": 2842,
    "however": 2843,
    "hu": 2844,
    "hum": 2845,
    "human": 2846,
    "humans": 2847,
    "hur": 2848,
    "hurricane": 2849,
    "husband": 2850,
    "husbandman": 2851,
    "hy": 2852,
    "hydro": 2853,
    "hyg": 2854,
    "hygrom": 2855,
    "hygrometric": 2856,
    "hygrometricus": 2857,
    "i": 2858,
    "ia": 2859,
    "ial": 2860,
    "ially": 2861,
    "ials": 2862,
    "iam": 2863,
    "ian": 2864,
    "iano": 2865,
    "ians": 2866,
    "iant": 2867,
    "iants": 2868,
    "ias": 2869,
    "iate": 2870,
    "iated": 2871,
    "ib": 2872,
    "iber": 2873,
    "ibility": 2874,
    "ible": 2875,
    "ibut": 2876,
    "ic": 2877,
    "ica": 2878,
    "ical": 2879,
    "ically": 2880,
    "ican": 2881,
    "icated": 2882,
    "ication": 2883,
    "ice": 2884,
    "ices": 2885,
    "ich": 2886,
    "ick": 2887,
    "icle": 2888,
    "icles": 2889,
    "ico": 2890,
    "ics": 2891,
    "ict": 2892,
    "icture": 2893,
    "icz": 2894,
    "id": 2895,
    "ida": 2896,
    "ide": 2897,
    "idea": 2898,
    "ideas": 2899,
    "ided": 2900,
    "idence": 2901,
    "ident": 2902,
    "identified": 2903,
    "idents": 2904,
    "ideo": 2905,
    "ideos": 2906,
    "ider": 2907,
    "iders": 2908,
    "ides": 2909,
    "idge": 2910,
    "iding": 2911,
    "ie": 2912,
    "ied": 2913,
    "ief": 2914,
    "iel": 2915,
    "ield": 2916,
    "ience": 2917,
    "ient": 2918,
    "ier": 2919,
    "iers": 2920,
    "ies": 2921,
    "iest": 2922,
    "iety": 2923,
    "iew": 2924,
    "if": 2925,
    "ife": 2926,
    "ifest": 2927,
    "iff": 2928,
    "ific": 2929,
    "ification": 2930,
    "ifications": 2931,
    "ified": 2932,
    "ift": 2933,
    "ify": 2934,
    "ifying": 2935,
    "ig": 2936,
    "igence": 2937,
    "igg": 2938,
    "igh": 2939,
    "ight": 2940,
    "ighter": 2941,
    "ighth": 2942,
    "igin": 2943,
    "ign": 2944,
    "igned": 2945,
    "ik": 2946,
    "ike": 2947,
    "il": 2948,
    "ilar": 2949,
    "ilarly": 2950,
    "ild": 2951,
    "ile": 2952,
    "iled": 2953,
    "ili": 2954,
    "ilis": 2955,
    "ilities": 2956,
    "ility": 2957,
    "ill": 2958,
    "illa": 2959,
    "illance": 2960,
    "ille": 2961,
    "iller": 2962,
    "illery": 2963,
    "illion": 2964,
    "illo": 2965,
    "illust": 2966,
    "ilm": 2967,
    "ilt": 2968,
    "ily": 2969,
    "im": 2970,
    "image": 2971,
    "images": 2972,
    "imal": 2973,
    "ime": 2974,
    "iment": 2975,
    "imes": 2976,
    "imin": 2977,
    "imm": 2978,
    "immedi": 2979,
    "immediately": 2980,
    "imp": 2981,
    "impact": 2982,
    "import": 2983,
    "importance": 2984,
    "important": 2985,
    "impro": 2986,
    "improve": 2987,
    "in": 2988,
    "ina": 2989,
    "ination": 2990,
    "inc": 2991,
    "ince": 2992,
    "inch": 2993,
    "inches": 2994,
    "incl": 2995,
    "includ": 2996,
    "include": 2997,
    "included": 2998,
    "includes": 2999,
    "including": 3000,
    "incorpor": 3001,
    "incre": 3002,
    "increase": 3003,
    "increased": 3004,
    "increasing": 3005,
    "increasingly": 3006,
    "inct": 3007,
    "ind": 3008,
    "independ": 3009,
    "indic": 3010,
    "indicated": 3011,
    "individ": 3012,
    "individual": 3013,
    "individuals": 3014,
    "inds": 3015,
    "indu": 3016,
    "industry": 3017,
    "ine": 3018,
    "ined": 3019,
    "inem": 3020,
    "ines": 3021,
    "iness": 3022,
    "influ": 3023,
    "influence": 3024,
    "influenced": 3025,
    "influences": 3026,
    "information": 3027,
    "infr": 3028,
    "ing": 3029,
    "ingal": 3030,
    "ings": 3031,
    "ington": 3032,
    "ingu": 3033,
    "init": 3034,
    "initial": 3035,
    "initially": 3036,
    "inity": 3037,
    "inj": 3038,
    "injury": 3039,
    "ink": 3040,
    "inn": 3041,
    "inner": 3042,
    "ino": 3043,
    "ins": 3044,
    "inside": 3045,
    "insp": 3046,
    "inspir": 3047,
    "inspired": 3048,
    "inst": 3049,
    "instance": 3050,
    "instead": 3051,
    "institut": 3052,
    "institutions": 3053,
    "instr": 3054,
    "instrument": 3055,
    "instruments": 3056,
    "int": 3057,
    "intell": 3058,
    "intelligence": 3059,
    "intended": 3060,
    "intention": 3061,
    "inter": 3062,
    "interaction": 3063,
    "interest": 3064,
    "international": 3065,
    "interpre": 3066,
    "interview": 3067,
    "into": 3068,
    "intro": 3069,
    "introdu": 3070,
    "introduced": 3071,
    "inv": 3072,
    "invasion": 3073,
    "invest": 3074,
    "investig": 3075,
    "invited": 3076,
    "invol": 3077,
    "involved": 3078,
    "involving": 3079,
    "iny": 3080,
    "io": 3081,
    "ion": 3082,
    "ional": 3083,
    "ionally": 3084,
    "ioned": 3085,
    "ions": 3086,
    "ior": 3087,
    "ious": 3088,
    "ip": 3089,
    "iple": 3090,
    "ipp": 3091,
    "ips": 3092,
    "iqu": 3093,
    "ique": 3094,
    "ir": 3095,
    "irc": 3096,
    "ird": 3097,
    "ire": 3098,
    "irect": 3099,
    "ired": 3100,
    "irement": 3101,
    "iring": 3102,
    "iron": 3103,
    "ironcl": 3104,
    "ironclad": 3105,
    "irst": 3106,
    "irt": 3107,
    "irty": 3108,
    "is": 3109,
    "isation": 3110,
    "isc": 3111,
    "iscuous": 3112,
    "ise": 3113,
    "ised": 3114,
    "iser": 3115,
    "ises": 3116,
    "isf": 3117,
    "ish": 3118,
    "ished": 3119,
    "ishing": 3120,
    "ising": 3121,
    "ision": 3122,
    "isions": 3123,
    "isl": 3124,
    "island": 3125,
    "ism": 3126,
    "ison": 3127,
    "iss": 3128,
    "issu": 3129,
    "issue": 3130,
    "issued": 3131,
    "issues": 3132,
    "ist": 3133,
    "istan": 3134,
    "isted": 3135,
    "ister": 3136,
    "istic": 3137,
    "istics": 3138,
    "isto": 3139,
    "ists": 3140,
    "it": 3141,
    "ita": 3142,
    "itable": 3143,
    "itage": 3144,
    "ital": 3145,
    "itary": 3146,
    "itation": 3147,
    "itch": 3148,
    "ite": 3149,
    "ited": 3150,
    "iter": 3151,
    "ites": 3152,
    "ith": 3153,
    "ither": 3154,
    "ithic": 3155,
    "iths": 3156,
    "ities": 3157,
    "iting": 3158,
    "ition": 3159,
    "itions": 3160,
    "itive": 3161,
    "itiz": 3162,
    "itor": 3163,
    "itors": 3164,
    "its": 3165,
    "itself": 3166,
    "itt": 3167,
    "itted": 3168,
    "ittee": 3169,
    "itting": 3170,
    "ittle": 3171,
    "ity": 3172,
    "ium": 3173,
    "ius": 3174,
    "iv": 3175,
    "iva": 3176,
    "ival": 3177,
    "ivalent": 3178,
    "ivate": 3179,
    "ive": 3180,
    "ived": 3181,
    "ively": 3182,
    "iven": 3183,
    "iver": 3184,
    "ivers": 3185,
    "iverse": 3186,
    "iversity": 3187,
    "ives": 3188,
    "ivid": 3189,
    "ivil": 3190,
    "iving": 3191,
    "ivity": 3192,
    "ix": 3193,
    "iy": 3194,
    "iz": 3195,
    "ization": 3196,
    "izations": 3197,
    "ize": 3198,
    "ized": 3199,
    "j": 3200,
    "ja": 3201,
    "jazz": 3202,
    "je": 3203,
    "ject": 3204,
    "jected": 3205,
    "jew": 3206,
    "ji": 3207,
    "jo": 3208,
    "job": 3209,
    "join": 3210,
    "joined": 3211,
    "joint": 3212,
    "jor": 3213,
    "journal": 3214,
    "journalists": 3215,
    "joy": 3216,
    "ju": 3217,
    "jud": 3218,
    "just": 3219,
    "k": 3220,
    "ka": 3221,
    "ke": 3222,
    "ked": 3223,
    "keep": 3224,
    "ken": 3225,
    "kept": 3226,
    "ker": 3227,
    "kes": 3228,
    "key": 3229,
    "kill": 3230,
    "killed": 3231,
    "kind": 3232,
    "king": 3233,
    "kings": 3234,
    "kins": 3235,
    "km": 3236,
    "kn": 3237,
    "knew": 3238,
    "know": 3239,
    "known": 3240,
    "ks": 3241,
    "ky": 3242,
    "l": 3243,
    "la": 3244,
    "lab": 3245,
    "label": 3246,
    "labor": 3247,
    "lack": 3248,
    "land": 3249,
    "landing": 3250,
    "lands": 3251,
    "lang": 3252,
    "langu": 3253,
    "language": 3254,
    "lar": 3255,
    "large": 3256,
    "largely": 3257,
    "larger": 3258,
    "largest": 3259,
    "last": 3260,
    "late": 3261,
    "later": 3262,
    "latter": 3263,
    "laun": 3264,
    "launched": 3265,
    "law": 3266,
    "lay": 3267,
    "layer": 3268,
    "ld": 3269,
    "le": 3270,
    "lead": 3271,
    "leader": 3272,
    "leading": 3273,
    "league": 3274,
    "lear": 3275,
    "lease": 3276,
    "least": 3277,
    "leave": 3278,
    "leaving": 3279,
    "lect": 3280,
    "led": 3281,
    "ledge": 3282,
    "left": 3283,
    "leg": 3284,
    "legal": 3285,
    "legisl": 3286,
    "leng": 3287,
    "length": 3288,
    "ler": 3289,
    "les": 3290,
    "less": 3291,
    "let": 3292,
    "lets": 3293,
    "leve": 3294,
    "level": 3295,
    "levels": 3296,
    "ley": 3297,
    "li": 3298,
    "libr": 3299,
    "lic": 3300,
    "lide": 3301,
    "lie": 3302,
    "lier": 3303,
    "lif": 3304,
    "life": 3305,
    "light": 3306,
    "like": 3307,
    "likely": 3308,
    "lim": 3309,
    "limit": 3310,
    "limited": 3311,
    "lin": 3312,
    "line": 3313,
    "lines": 3314,
    "ling": 3315,
    "link": 3316,
    "list": 3317,
    "listed": 3318,
    "lit": 3319,
    "liter": 3320,
    "literature": 3321,
    "little": 3322,
    "live": 3323,
    "lived": 3324,
    "lives": 3325,
    "living": 3326,
    "ll": 3327,
    "lo": 3328,
    "load": 3329,
    "loan": 3330,
    "loc": 3331,
    "local": 3332,
    "located": 3333,
    "location": 3334,
    "lock": 3335,
    "log": 3336,
    "lone": 3337,
    "long": 3338,
    "longer": 3339,
    "look": 3340,
    "looking": 3341,
    "lor": 3342,
    "losa": 3343,
    "losing": 3344,
    "loss": 3345,
    "lost": 3346,
    "lot": 3347,
    "love": 3348,
    "low": 3349,
    "lower": 3350,
    "loy": 3351,
    "ls": 3352,
    "lu": 3353,
    "ly": 3354,
    "lying": 3355,
    "lyr": 3356,
    "lyrics": 3357,
    "m": 3358,
    "ma": 3359,
    "maat": 3360,
    "mac": 3361,
    "mach": 3362,
    "made": 3363,
    "mag": 3364,
    "magazine": 3365,
    "main": 3366,
    "mainly": 3367,
    "maintain": 3368,
    "major": 3369,
    "majority": 3370,
    "make": 3371,
    "makes": 3372,
    "making": 3373,
    "male": 3374,
    "man": 3375,
    "manag": 3376,
    "managed": 3377,
    "management": 3378,
    "manager": 3379,
    "manent": 3380,
    "manifest": 3381,
    "manu": 3382,
    "manufact": 3383,
    "many": 3384,
    "mar": 3385,
    "mark": 3386,
    "marked": 3387,
    "market": 3388,
    "marks": 3389,
    "marriage": 3390,
    "married": 3391,
    "mas": 3392,
    "mask": 3393,
    "maskray": 3394,
    "mass": 3395,
    "mat": 3396,
    "match": 3397,
    "matches": 3398,
    "mater": 3399,
    "material": 3400,
    "mates": 3401,
    "matter": 3402,
    "maxim": 3403,
    "maximum": 3404,
    "may": 3405,
    "mb": 3406,
    "mber": 3407,
    "me": 3408,
    "mean": 3409,
    "meaning": 3410,
    "means": 3411,
    "meant": 3412,
    "meas": 3413,
    "measure": 3414,
    "med": 3415,
    "medi": 3416,
    "media": 3417,
    "meet": 3418,
    "mel": 3419,
    "melod": 3420,
    "mem": 3421,
    "member": 3422,
    "membered": 3423,
    "members": 3424,
    "memor": 3425,
    "memory": 3426,
    "men": 3427,
    "ment": 3428,
    "mentioned": 3429,
    "ments": 3430,
    "mer": 3431,
    "mercial": 3432,
    "mes": 3433,
    "met": 3434,
    "metal": 3435,
    "metall": 3436,
    "method": 3437,
    "metres": 3438,
    "mi": 3439,
    "mic": 3440,
    "microlight": 3441,
    "mid": 3442,
    "middle": 3443,
    "might": 3444,
    "mil": 3445,
    "miles": 3446,
    "military": 3447,
    "mill": 3448,
    "million": 3449,
    "min": 3450,
    "minis": 3451,
    "ministr": 3452,
    "minor": 3453,
    "mint": 3454,
    "minut": 3455,
    "minute": 3456,
    "minutes": 3457,
    "mir": 3458,
    "miral": 3459,
    "mis": 3460,
    "miss": 3461,
    "missed": 3462,
    "missing": 3463,
    "mission": 3464,
    "missions": 3465,
    "mit": 3466,
    "mitted": 3467,
    "mix": 3468,
    "mixed": 3469,
    "mm": 3470,
    "mn": 3471,
    "mo": 3472,
    "mob": 3473,
    "mod": 3474,
    "mode": 3475,
    "model": 3476,
    "modern": 3477,
    "mon": 3478,
    "mond": 3479,
    "money": 3480,
    "month": 3481,
    "months": 3482,
    "monument": 3483,
    "monuments": 3484,
    "mor": 3485,
    "moral": 3486,
    "more": 3487,
    "morn": 3488,
    "morning": 3489,
    "most": 3490,
    "mostly": 3491,
    "mot": 3492,
    "mother": 3493,
    "moun": 3494,
    "mound": 3495,
    "mouth": 3496,
    "move": 3497,
    "moved": 3498,
    "movement": 3499,
    "moving": 3500,
    "mp": 3501,
    "mph": 3502,
    "ms": 3503,
    "much": 3504,
    "mult": 3505,
    "multiple": 3506,
    "mun": 3507,
    "mund": 3508,
    "murder": 3509,
    "mus": 3510,
    "museum": 3511,
    "museums": 3512,
    "music": 3513,
    "musical": 3514,
    "musician": 3515,
    "musicians": 3516,
    "must": 3517,
    "mut": 3518,
    "my": 3519,
    "myth": 3520,
    "n": 3521,
    "na": 3522,
    "nal": 3523,
    "name": 3524,
    "named": 3525,
    "names": 3526,
    "nance": 3527,
    "nar": 3528,
    "narr": 3529,
    "narrative": 3530,
    "narrow": 3531,
    "nat": 3532,
    "nation": 3533,
    "national": 3534,
    "natural": 3535,
    "nature": 3536,
    "naval": 3537,
    "nd": 3538,
    "ne": 3539,
    "near": 3540,
    "nearby": 3541,
    "nearly": 3542,
    "necess": 3543,
    "necessary": 3544,
    "ned": 3545,
    "need": 3546,
    "neg": 3547,
    "nel": 3548,
    "ner": 3549,
    "nes": 3550,
    "ness": 3551,
    "net": 3552,
    "never": 3553,
    "new": 3554,
    "newly": 3555,
    "news": 3556,
    "newsp": 3557,
    "newspaper": 3558,
    "next": 3559,
    "ney": 3560,
    "nick": 3561,
    "night": 3562,
    "nin": 3563,
    "nine": 3564,
    "ning": 3565,
    "ninth": 3566,
    "no": 3567,
    "noise": 3568,
    "nomin": 3569,
    "nominated": 3570,
    "nominations": 3571,
    "non": 3572,
    "nor": 3573,
    "norm": 3574,
    "north": 3575,
    "northern": 3576,
    "not": 3577,
    "note": 3578,
    "noted": 3579,
    "notes": 3580,
    "noting": 3581,
    "novel": 3582,
    "now": 3583,
    "ns": 3584,
    "nu": 3585,
    "nuc": 3586,
    "nuclear": 3587,
    "num": 3588,
    "number": 3589,
    "numbers": 3590,
    "nut": 3591,
    "ny": 3592,
    "nyi": 3593,
    "o": 3594,
    "ob": 3595,
    "object": 3596,
    "objects": 3597,
    "observ": 3598,
    "observations": 3599,
    "observatory": 3600,
    "observed": 3601,
    "obtain": 3602,
    "obtained": 3603,
    "oc": 3604,
    "occas": 3605,
    "occup": 3606,
    "occupation": 3607,
    "occupied": 3608,
    "occur": 3609,
    "occurred": 3610,
    "ock": 3611,
    "ockey": 3612,
    "od": 3613,
    "ode": 3614,
    "odes": 3615,
    "odor": 3616,
    "odrom": 3617,
    "of": 3618,
    "off": 3619,
    "offer": 3620,
    "offered": 3621,
    "offic": 3622,
    "office": 3623,
    "officer": 3624,
    "officers": 3625,
    "official": 3626,
    "officially": 3627,
    "officials": 3628,
    "offs": 3629,
    "often": 3630,
    "og": 3631,
    "ogn": 3632,
    "ograp": 3633,
    "ograph": 3634,
    "ography": 3635,
    "ogue": 3636,
    "oh": 3637,
    "oid": 3638,
    "oil": 3639,
    "ok": 3640,
    "oked": 3641,
    "ol": 3642,
    "old": 3643,
    "older": 3644,
    "olf": 3645,
    "olid": 3646,
    "oliday": 3647,
    "olithic": 3648,
    "olk": 3649,
    "ollow": 3650,
    "olly": 3651,
    "ollywood": 3652,
    "olog": 3653,
    "ological": 3654,
    "ologies": 3655,
    "ology": 3656,
    "ols": 3657,
    "om": 3658,
    "oman": 3659,
    "omas": 3660,
    "omb": 3661,
    "ome": 3662,
    "omen": 3663,
    "omer": 3664,
    "omet": 3665,
    "ometimes": 3666,
    "omin": 3667,
    "oming": 3668,
    "on": 3669,
    "onald": 3670,
    "once": 3671,
    "ond": 3672,
    "one": 3673,
    "oned": 3674,
    "onel": 3675,
    "onents": 3676,
    "ones": 3677,
    "oney": 3678,
    "ong": 3679,
    "onium": 3680,
    "only": 3681,
    "onom": 3682,
    "ons": 3683,
    "ont": 3684,
    "onto": 3685,
    "ony": 3686,
    "onym": 3687,
    "ood": 3688,
    "oot": 3689,
    "op": 3690,
    "ope": 3691,
    "open": 3692,
    "opened": 3693,
    "opening": 3694,
    "oper": 3695,
    "operation": 3696,
    "operations": 3697,
    "opin": 3698,
    "opinion": 3699,
    "ople": 3700,
    "opol": 3701,
    "opp": 3702,
    "opportun": 3703,
    "opportunities": 3704,
    "opportunity": 3705,
    "oppos": 3706,
    "ops": 3707,
    "opy": 3708,
    "or": 3709,
    "orary": 3710,
    "orb": 3711,
    "ord": 3712,
    "ordan": 3713,
    "order": 3714,
    "ordered": 3715,
    "ordin": 3716,
    "ordnance": 3717,
    "ore": 3718,
    "ored": 3719,
    "ores": 3720,
    "organ": 3721,
    "organised": 3722,
    "organization": 3723,
    "organizations": 3724,
    "orial": 3725,
    "ories": 3726,
    "origin": 3727,
    "original": 3728,
    "originally": 3729,
    "ork": 3730,
    "orld": 3731,
    "orm": 3732,
    "orn": 3733,
    "ors": 3734,
    "ort": 3735,
    "orted": 3736,
    "orth": 3737,
    "orus": 3738,
    "ory": 3739,
    "os": 3740,
    "ose": 3741,
    "oselect": 3742,
    "ost": 3743,
    "ot": 3744,
    "ota": 3745,
    "ote": 3746,
    "oted": 3747,
    "otes": 3748,
    "oth": 3749,
    "other": 3750,
    "others": 3751,
    "oto": 3752,
    "ots": 3753,
    "ott": 3754,
    "oty": 3755,
    "ou": 3756,
    "oud": 3757,
    "ough": 3758,
    "ought": 3759,
    "ould": 3760,
    "oun": 3761,
    "ound": 3762,
    "ounds": 3763,
    "oung": 3764,
    "our": 3765,
    "ournal": 3766,
    "ous": 3767,
    "ouse": 3768,
    "ously": 3769,
    "out": 3770,
    "outh": 3771,
    "outing": 3772,
    "outs": 3773,
    "outside": 3774,
    "ov": 3775,
    "over": 3776,
    "overall": 3777,
    "overn": 3778,
    "overnment": 3779,
    "overnor": 3780,
    "ow": 3781,
    "ower": 3782,
    "owever": 3783,
    "own": 3784,
    "owned": 3785,
    "owner": 3786,
    "owski": 3787,
    "ox": 3788,
    "oy": 3789,
    "p": 3790,
    "pack": 3791,
    "paid": 3792,
    "pain": 3793,
    "paint": 3794,
    "pair": 3795,
    "pan": 3796,
    "panel": 3797,
    "paper": 3798,
    "par": 3799,
    "part": 3800,
    "partial": 3801,
    "partic": 3802,
    "particip": 3803,
    "participated": 3804,
    "particular": 3805,
    "particularly": 3806,
    "partly": 3807,
    "partment": 3808,
    "parts": 3809,
    "pass": 3810,
    "passed": 3811,
    "passeng": 3812,
    "passing": 3813,
    "past": 3814,
    "pat": 3815,
    "patch": 3816,
    "patron": 3817,
    "pattern": 3818,
    "pay": 3819,
    "pe": 3820,
    "peace": 3821,
    "pecial": 3822,
    "pect": 3823,
    "pected": 3824,
    "pector": 3825,
    "ped": 3826,
    "pen": 3827,
    "penalty": 3828,
    "people": 3829,
    "per": 3830,
    "perform": 3831,
    "performan": 3832,
    "performance": 3833,
    "performances": 3834,
    "performed": 3835,
    "performing": 3836,
    "peri": 3837,
    "period": 3838,
    "permanent": 3839,
    "permitted": 3840,
    "pers": 3841,
    "person": 3842,
    "personal": 3843,
    "pet": 3844,
    "pg": 3845,
    "ph": 3846,
    "phara": 3847,
    "phen": 3848,
    "photo": 3849,
    "photograph": 3850,
    "phy": 3851,
    "phys": 3852,
    "physical": 3853,
    "pick": 3854,
    "picked": 3855,
    "pie": 3856,
    "piece": 3857,
    "pieces": 3858,
    "pil": 3859,
    "pilot": 3860,
    "pilots": 3861,
    "ping": 3862,
    "pitch": 3863,
    "pite": 3864,
    "pl": 3865,
    "plac": 3866,
    "place": 3867,
    "placed": 3868,
    "places": 3869,
    "plain": 3870,
    "plan": 3871,
    "plane": 3872,
    "plann": 3873,
    "planned": 3874,
    "planning": 3875,
    "plans": 3876,
    "play": 3877,
    "played": 3878,
    "player": 3879,
    "players": 3880,
    "playing": 3881,
    "playoff": 3882,
    "playoffs": 3883,
    "ple": 3884,
    "pled": 3885,
    "plement": 3886,
    "ples": 3887,
    "plot": 3888,
    "ploy": 3889,
    "ply": 3890,
    "po": 3891,
    "point": 3892,
    "points": 3893,
    "pol": 3894,
    "polic": 3895,
    "police": 3896,
    "policy": 3897,
    "polit": 3898,
    "political": 3899,
    "poly": 3900,
    "poor": 3901,
    "pop": 3902,
    "popular": 3903,
    "population": 3904,
    "por": 3905,
    "port": 3906,
    "portico": 3907,
    "portion": 3908,
    "portr": 3909,
    "ports": 3910,
    "portun": 3911,
    "pos": 3912,
    "pose": 3913,
    "posed": 3914,
    "poses": 3915,
    "position": 3916,
    "positions": 3917,
    "positive": 3918,
    "poss": 3919,
    "possess": 3920,
    "possible": 3921,
    "post": 3922,
    "posted": 3923,
    "pot": 3924,
    "potential": 3925,
    "pound": 3926,
    "pow": 3927,
    "power": 3928,
    "powered": 3929,
    "ppg": 3930,
    "pr": 3931,
    "pra": 3932,
    "pract": 3933,
    "practices": 3934,
    "praised": 3935,
    "pre": 3936,
    "pread": 3937,
    "prec": 3938,
    "preced": 3939,
    "pred": 3940,
    "premi": 3941,
    "prepar": 3942,
    "prepared": 3943,
    "pres": 3944,
    "presence": 3945,
    "present": 3946,
    "presented": 3947,
    "presents": 3948,
    "preser": 3949,
    "president": 3950,
    "press": 3951,
    "pressed": 3952,
    "pressing": 3953,
    "pression": 3954,
    "pressure": 3955,
    "prevent": 3956,
    "previous": 3957,
    "previously": 3958,
    "pri": 3959,
    "prim": 3960,
    "primarily": 3961,
    "primary": 3962,
    "pring": 3963,
    "print": 3964,
    "prior": 3965,
    "prising": 3966,
    "prison": 3967,
    "private": 3968,
    "pro": 3969,
    "prob": 3970,
    "probably": 3971,
    "proble": 3972,
    "problems": 3973,
    "proceed": 3974,
    "proceeded": 3975,
    "process": 3976,
    "produ": 3977,
    "produce": 3978,
    "produced": 3979,
    "producer": 3980,
    "producing": 3981,
    "production": 3982,
    "prof": 3983,
    "profess": 3984,
    "professional": 3985,
    "program": 3986,
    "progress": 3987,
    "prohib": 3988,
    "project": 3989,
    "projects": 3990,
    "prom": 3991,
    "promin": 3992,
    "prominent": 3993,
    "promot": 3994,
    "promoted": 3995,
    "promotion": 3996,
    "prop": 3997,
    "propaganda": 3998,
    "proper": 3999,
    "property": 4000,
    "propos": 4001,
    "proposed": 4002,
    "prot": 4003,
    "prote": 4004,
    "protect": 4005,
    "protest": 4006,
    "prov": 4007,
    "proved": 4008,
    "provide": 4009,
    "provided": 4010,
    "ps": 4011,
    "pt": 4012,
    "ption": 4013,
    "pton": 4014,
    "publ": 4015,
    "public": 4016,
    "publication": 4017,
    "publications": 4018,
    "published": 4019,
    "pur": 4020,
    "purch": 4021,
    "purchased": 4022,
    "purpose": 4023,
    "purposes": 4024,
    "pursu": 4025,
    "push": 4026,
    "put": 4027,
    "q": 4028,
    "qu": 4029,
    "quad": 4030,
    "quadron": 4031,
    "qual": 4032,
    "quality": 4033,
    "quar": 4034,
    "quare": 4035,
    "quarter": 4036,
    "quarters": 4037,
    "que": 4038,
    "quest": 4039,
    "quick": 4040,
    "quickly": 4041,
    "r": 4042,
    "ra": 4043,
    "rac": 4044,
    "rad": 4045,
    "radio": 4046,
    "raid": 4047,
    "rail": 4048,
    "rain": 4049,
    "raised": 4050,
    "ral": 4051,
    "ram": 4052,
    "ran": 4053,
    "ranch": 4054,
    "rang": 4055,
    "range": 4056,
    "rania": 4057,
    "rank": 4058,
    "ranked": 4059,
    "rap": 4060,
    "rapid": 4061,
    "rapped": 4062,
    "rare": 4063,
    "rarely": 4064,
    "rat": 4065,
    "rate": 4066,
    "rated": 4067,
    "rather": 4068,
    "ration": 4069,
    "ray": 4070,
    "rays": 4071,
    "rd": 4072,
    "re": 4073,
    "rea": 4074,
    "reached": 4075,
    "reaction": 4076,
    "reactor": 4077,
    "read": 4078,
    "ready": 4079,
    "reag": 4080,
    "reagents": 4081,
    "reak": 4082,
    "real": 4083,
    "really": 4084,
    "ream": 4085,
    "reason": 4086,
    "reat": 4087,
    "rec": 4088,
    "recalled": 4089,
    "rece": 4090,
    "received": 4091,
    "recogn": 4092,
    "recognised": 4093,
    "recognized": 4094,
    "recomm": 4095,
    "recon": 4096,
    "record": 4097,
    "recorded": 4098,
    "recording": 4099,
    "records": 4100,
    "recre": 4101,
    "rect": 4102,
    "red": 4103,
    "redu": 4104,
    "reduced": 4105,
    "ree": 4106,
    "reek": 4107,
    "reen": 4108,
    "reet": 4109,
    "ref": 4110,
    "refer": 4111,
    "referred": 4112,
    "refle": 4113,
    "refused": 4114,
    "reg": 4115,
    "regard": 4116,
    "regarded": 4117,
    "regime": 4118,
    "region": 4119,
    "regional": 4120,
    "register": 4121,
    "regul": 4122,
    "regular": 4123,
    "regulation": 4124,
    "rein": 4125,
    "reinforce": 4126,
    "rejected": 4127,
    "rel": 4128,
    "related": 4129,
    "relation": 4130,
    "relationship": 4131,
    "relationships": 4132,
    "relatively": 4133,
    "rele": 4134,
    "release": 4135,
    "released": 4136,
    "releases": 4137,
    "reli": 4138,
    "relief": 4139,
    "relig": 4140,
    "religion": 4141,
    "religious": 4142,
    "remain": 4143,
    "remainder": 4144,
    "remained": 4145,
    "remaining": 4146,
    "remains": 4147,
    "remarked": 4148,
    "reme": 4149,
    "removed": 4150,
    "ren": 4151,
    "renamed": 4152,
    "rench": 4153,
    "rend": 4154,
    "render": 4155,
    "reng": 4156,
    "repair": 4157,
    "repaired": 4158,
    "repe": 4159,
    "replac": 4160,
    "replaced": 4161,
    "report": 4162,
    "reported": 4163,
    "reports": 4164,
    "represent": 4165,
    "representative": 4166,
    "represented": 4167,
    "representing": 4168,
    "represents": 4169,
    "requ": 4170,
    "request": 4171,
    "required": 4172,
    "res": 4173,
    "resc": 4174,
    "research": 4175,
    "resemb": 4176,
    "resp": 4177,
    "respect": 4178,
    "respectively": 4179,
    "respon": 4180,
    "respond": 4181,
    "respons": 4182,
    "response": 4183,
    "responsible": 4184,
    "ress": 4185,
    "ressed": 4186,
    "rest": 4187,
    "restrict": 4188,
    "result": 4189,
    "resulted": 4190,
    "resulting": 4191,
    "results": 4192,
    "ret": 4193,
    "retired": 4194,
    "retirement": 4195,
    "return": 4196,
    "returned": 4197,
    "returning": 4198,
    "reve": 4199,
    "reveal": 4200,
    "revealed": 4201,
    "reven": 4202,
    "review": 4203,
    "reviews": 4204,
    "revol": 4205,
    "revolution": 4206,
    "rew": 4207,
    "ri": 4208,
    "ria": 4209,
    "riage": 4210,
    "rian": 4211,
    "ric": 4212,
    "rical": 4213,
    "rican": 4214,
    "ricane": 4215,
    "rich": 4216,
    "riding": 4217,
    "rie": 4218,
    "ried": 4219,
    "rif": 4220,
    "right": 4221,
    "rights": 4222,
    "ring": 4223,
    "rit": 4224,
    "rituals": 4225,
    "ro": 4226,
    "road": 4227,
    "rock": 4228,
    "rol": 4229,
    "role": 4230,
    "roles": 4231,
    "rolight": 4232,
    "roll": 4233,
    "rom": 4234,
    "ron": 4235,
    "ront": 4236,
    "room": 4237,
    "rop": 4238,
    "roph": 4239,
    "ross": 4240,
    "rote": 4241,
    "rough": 4242,
    "round": 4243,
    "route": 4244,
    "row": 4245,
    "rown": 4246,
    "roy": 4247,
    "royal": 4248,
    "ru": 4249,
    "ruit": 4250,
    "rul": 4251,
    "rule": 4252,
    "rum": 4253,
    "rumors": 4254,
    "run": 4255,
    "runs": 4256,
    "rup": 4257,
    "ruption": 4258,
    "ry": 4259,
    "s": 4260,
    "sa": 4261,
    "sac": 4262,
    "sacred": 4263,
    "saf": 4264,
    "safe": 4265,
    "said": 4266,
    "sail": 4267,
    "sal": 4268,
    "sales": 4269,
    "same": 4270,
    "san": 4271,
    "sat": 4272,
    "satisf": 4273,
    "saurus": 4274,
    "save": 4275,
    "saves": 4276,
    "saw": 4277,
    "saying": 4278,
    "says": 4279,
    "sc": 4280,
    "scale": 4281,
    "scen": 4282,
    "scene": 4283,
    "scenes": 4284,
    "sched": 4285,
    "schol": 4286,
    "scholar": 4287,
    "scholars": 4288,
    "school": 4289,
    "schools": 4290,
    "scient": 4291,
    "scop": 4292,
    "scope": 4293,
    "scopic": 4294,
    "scor": 4295,
    "score": 4296,
    "scored": 4297,
    "scoring": 4298,
    "scri": 4299,
    "script": 4300,
    "sculpt": 4301,
    "sculpture": 4302,
    "se": 4303,
    "sea": 4304,
    "search": 4305,
    "season": 4306,
    "seasons": 4307,
    "seated": 4308,
    "sec": 4309,
    "second": 4310,
    "secondary": 4311,
    "seconds": 4312,
    "secret": 4313,
    "sect": 4314,
    "section": 4315,
    "sector": 4316,
    "secur": 4317,
    "security": 4318,
    "sed": 4319,
    "see": 4320,
    "seek": 4321,
    "seen": 4322,
    "sel": 4323,
    "sele": 4324,
    "select": 4325,
    "selected": 4326,
    "self": 4327,
    "sell": 4328,
    "selling": 4329,
    "selves": 4330,
    "semb": 4331,
    "semble": 4332,
    "semi": 4333,
    "sen": 4334,
    "send": 4335,
    "sense": 4336,
    "sent": 4337,
    "separ": 4338,
    "separate": 4339,
    "sequ": 4340,
    "ser": 4341,
    "series": 4342,
    "serious": 4343,
    "serv": 4344,
    "serve": 4345,
    "served": 4346,
    "service": 4347,
    "services": 4348,
    "serving": 4349,
    "ses": 4350,
    "set": 4351,
    "sett": 4352,
    "settle": 4353,
    "settlement": 4354,
    "seven": 4355,
    "seventh": 4356,
    "sever": 4357,
    "several": 4358,
    "severe": 4359,
    "sex": 4360,
    "sexual": 4361,
    "sey": 4362,
    "sh": 4363,
    "shape": 4364,
    "shaped": 4365,
    "share": 4366,
    "shared": 4367,
    "she": 4368,
    "shel": 4369,
    "shell": 4370,
    "shells": 4371,
    "ship": 4372,
    "ships": 4373,
    "shire": 4374,
    "sho": 4375,
    "shoot": 4376,
    "shooting": 4377,
    "shore": 4378,
    "short": 4379,
    "shortly": 4380,
    "shot": 4381,
    "shots": 4382,
    "should": 4383,
    "show": 4384,
    "shown": 4385,
    "shows": 4386,
    "shr": 4387,
    "shrine": 4388,
    "shrines": 4389,
    "side": 4390,
    "sign": 4391,
    "signed": 4392,
    "signific": 4393,
    "significant": 4394,
    "significantly": 4395,
    "sil": 4396,
    "silver": 4397,
    "sim": 4398,
    "similar": 4399,
    "sin": 4400,
    "since": 4401,
    "sing": 4402,
    "singer": 4403,
    "single": 4404,
    "singles": 4405,
    "sion": 4406,
    "sis": 4407,
    "sister": 4408,
    "sisters": 4409,
    "sit": 4410,
    "site": 4411,
    "sites": 4412,
    "situ": 4413,
    "situation": 4414,
    "six": 4415,
    "sixth": 4416,
    "size": 4417,
    "sk": 4418,
    "ska": 4419,
    "sket": 4420,
    "ski": 4421,
    "skill": 4422,
    "skin": 4423,
    "skull": 4424,
    "sky": 4425,
    "sl": 4426,
    "slight": 4427,
    "slow": 4428,
    "sm": 4429,
    "small": 4430,
    "smaller": 4431,
    "smo": 4432,
    "smooth": 4433,
    "so": 4434,
    "soci": 4435,
    "social": 4436,
    "sociation": 4437,
    "society": 4438,
    "sol": 4439,
    "sold": 4440,
    "soldiers": 4441,
    "sole": 4442,
    "solo": 4443,
    "some": 4444,
    "something": 4445,
    "sometimes": 4446,
    "somewhat": 4447,
    "son": 4448,
    "song": 4449,
    "songs": 4450,
    "sons": 4451,
    "soon": 4452,
    "sop": 4453,
    "sort": 4454,
    "sou": 4455,
    "sought": 4456,
    "sound": 4457,
    "soundtrack": 4458,
    "sour": 4459,
    "south": 4460,
    "southern": 4461,
    "sp": 4462,
    "space": 4463,
    "spe": 4464,
    "spec": 4465,
    "special": 4466,
    "species": 4467,
    "specific": 4468,
    "specim": 4469,
    "specimen": 4470,
    "specimens": 4471,
    "spect": 4472,
    "spee": 4473,
    "speed": 4474,
    "spent": 4475,
    "sph": 4476,
    "spir": 4477,
    "spital": 4478,
    "spl": 4479,
    "spo": 4480,
    "spons": 4481,
    "spore": 4482,
    "spores": 4483,
    "sport": 4484,
    "spot": 4485,
    "spread": 4486,
    "spring": 4487,
    "squad": 4488,
    "squadron": 4489,
    "square": 4490,
    "ss": 4491,
    "ssing": 4492,
    "st": 4493,
    "sta": 4494,
    "stable": 4495,
    "staff": 4496,
    "stage": 4497,
    "stained": 4498,
    "stances": 4499,
    "stand": 4500,
    "standard": 4501,
    "standards": 4502,
    "standing": 4503,
    "stant": 4504,
    "star": 4505,
    "starred": 4506,
    "stars": 4507,
    "start": 4508,
    "started": 4509,
    "starting": 4510,
    "stat": 4511,
    "state": 4512,
    "stated": 4513,
    "states": 4514,
    "stating": 4515,
    "station": 4516,
    "stationed": 4517,
    "statute": 4518,
    "stay": 4519,
    "ste": 4520,
    "stead": 4521,
    "steam": 4522,
    "stem": 4523,
    "step": 4524,
    "ster": 4525,
    "stib": 4526,
    "still": 4527,
    "stim": 4528,
    "stit": 4529,
    "stitut": 4530,
    "stitute": 4531,
    "stitution": 4532,
    "sto": 4533,
    "stone": 4534,
    "stones": 4535,
    "stop": 4536,
    "storm": 4537,
    "story": 4538,
    "str": 4539,
    "straight": 4540,
    "strate": 4541,
    "streak": 4542,
    "street": 4543,
    "streng": 4544,
    "stri": 4545,
    "strial": 4546,
    "strict": 4547,
    "strike": 4548,
    "strong": 4549,
    "stru": 4550,
    "struck": 4551,
    "struct": 4552,
    "struction": 4553,
    "strugg": 4554,
    "stry": 4555,
    "stud": 4556,
    "student": 4557,
    "students": 4558,
    "studies": 4559,
    "studio": 4560,
    "study": 4561,
    "sty": 4562,
    "style": 4563,
    "styles": 4564,
    "su": 4565,
    "sub": 4566,
    "subject": 4567,
    "submar": 4568,
    "submarine": 4569,
    "submarines": 4570,
    "subsequ": 4571,
    "subsequently": 4572,
    "suc": 4573,
    "success": 4574,
    "successful": 4575,
    "successfully": 4576,
    "such": 4577,
    "suf": 4578,
    "suffer": 4579,
    "suffered": 4580,
    "suffering": 4581,
    "suggest": 4582,
    "suggested": 4583,
    "suggests": 4584,
    "sul": 4585,
    "sulf": 4586,
    "sulfide": 4587,
    "sum": 4588,
    "summer": 4589,
    "sun": 4590,
    "sup": 4591,
    "super": 4592,
    "suppl": 4593,
    "supply": 4594,
    "support": 4595,
    "supported": 4596,
    "sur": 4597,
    "sure": 4598,
    "surface": 4599,
    "surround": 4600,
    "surrounding": 4601,
    "surv": 4602,
    "surve": 4603,
    "sus": 4604,
    "sustained": 4605,
    "sw": 4606,
    "sy": 4607,
    "symb": 4608,
    "symbol": 4609,
    "syn": 4610,
    "synagogue": 4611,
    "synthe": 4612,
    "synthesis": 4613,
    "system": 4614,
    "systems": 4615,
    "t": 4616,
    "ta": 4617,
    "table": 4618,
    "tah": 4619,
    "tail": 4620,
    "tain": 4621,
    "tak": 4622,
    "take": 4623,
    "taken": 4624,
    "takes": 4625,
    "taking": 4626,
    "tal": 4627,
    "tale": 4628,
    "tar": 4629,
    "target": 4630,
    "tax": 4631,
    "te": 4632,
    "teach": 4633,
    "teachers": 4634,
    "team": 4635,
    "teams": 4636,
    "techn": 4637,
    "technical": 4638,
    "ted": 4639,
    "tee": 4640,
    "teen": 4641,
    "teenth": 4642,
    "tele": 4643,
    "television": 4644,
    "tell": 4645,
    "tem": 4646,
    "temp": 4647,
    "temple": 4648,
    "temples": 4649,
    "ten": 4650,
    "tend": 4651,
    "tender": 4652,
    "tens": 4653,
    "ter": 4654,
    "tered": 4655,
    "term": 4656,
    "termin": 4657,
    "terms": 4658,
    "tern": 4659,
    "territ": 4660,
    "ters": 4661,
    "tery": 4662,
    "test": 4663,
    "text": 4664,
    "texts": 4665,
    "th": 4666,
    "than": 4667,
    "that": 4668,
    "the": 4669,
    "theast": 4670,
    "theat": 4671,
    "their": 4672,
    "theless": 4673,
    "them": 4674,
    "theme": 4675,
    "themed": 4676,
    "themes": 4677,
    "themselves": 4678,
    "then": 4679,
    "ther": 4680,
    "there": 4681,
    "therefore": 4682,
    "thern": 4683,
    "thers": 4684,
    "these": 4685,
    "thetic": 4686,
    "they": 4687,
    "thi": 4688,
    "thick": 4689,
    "thing": 4690,
    "things": 4691,
    "think": 4692,
    "third": 4693,
    "thirty": 4694,
    "this": 4695,
    "thod": 4696,
    "thor": 4697,
    "those": 4698,
    "though": 4699,
    "thought": 4700,
    "thr": 4701,
    "threat": 4702,
    "threatened": 4703,
    "three": 4704,
    "through": 4705,
    "throughout": 4706,
    "throw": 4707,
    "thus": 4708,
    "tic": 4709,
    "tied": 4710,
    "ties": 4711,
    "tim": 4712,
    "time": 4713,
    "times": 4714,
    "ting": 4715,
    "tion": 4716,
    "tit": 4717,
    "title": 4718,
    "titled": 4719,
    "titles": 4720,
    "to": 4721,
    "toge": 4722,
    "together": 4723,
    "told": 4724,
    "tom": 4725,
    "tomb": 4726,
    "tombs": 4727,
    "ton": 4728,
    "tonnes": 4729,
    "tons": 4730,
    "too": 4731,
    "took": 4732,
    "top": 4733,
    "tor": 4734,
    "torped": 4735,
    "torpedo": 4736,
    "total": 4737,
    "tour": 4738,
    "touring": 4739,
    "tow": 4740,
    "toward": 4741,
    "towards": 4742,
    "tower": 4743,
    "town": 4744,
    "tr": 4745,
    "tra": 4746,
    "track": 4747,
    "tracks": 4748,
    "trad": 4749,
    "trade": 4750,
    "traded": 4751,
    "tradition": 4752,
    "traditional": 4753,
    "traf": 4754,
    "traffic": 4755,
    "train": 4756,
    "training": 4757,
    "tran": 4758,
    "trans": 4759,
    "transfer": 4760,
    "transferred": 4761,
    "transport": 4762,
    "trave": 4763,
    "travel": 4764,
    "tre": 4765,
    "treat": 4766,
    "treaty": 4767,
    "tree": 4768,
    "trees": 4769,
    "trials": 4770,
    "tribut": 4771,
    "trick": 4772,
    "trict": 4773,
    "tries": 4774,
    "trip": 4775,
    "tro": 4776,
    "troops": 4777,
    "trop": 4778,
    "tru": 4779,
    "truction": 4780,
    "true": 4781,
    "try": 4782,
    "ts": 4783,
    "tt": 4784,
    "tur": 4785,
    "turn": 4786,
    "turned": 4787,
    "turns": 4788,
    "turret": 4789,
    "turrets": 4790,
    "tw": 4791,
    "twent": 4792,
    "twenty": 4793,
    "twice": 4794,
    "twin": 4795,
    "two": 4796,
    "ty": 4797,
    "typ": 4798,
    "type": 4799,
    "types": 4800,
    "typically": 4801,
    "u": 4802,
    "ual": 4803,
    "ually": 4804,
    "uals": 4805,
    "uary": 4806,
    "ub": 4807,
    "ubl": 4808,
    "uc": 4809,
    "uch": 4810,
    "uck": 4811,
    "ud": 4812,
    "ude": 4813,
    "uded": 4814,
    "udes": 4815,
    "ue": 4816,
    "uel": 4817,
    "ues": 4818,
    "ugh": 4819,
    "uk": 4820,
    "ul": 4821,
    "ula": 4822,
    "ular": 4823,
    "ulate": 4824,
    "ulated": 4825,
    "ulation": 4826,
    "ule": 4827,
    "ulf": 4828,
    "ull": 4829,
    "ulls": 4830,
    "ulpt": 4831,
    "ult": 4832,
    "ultim": 4833,
    "ultimately": 4834,
    "ultural": 4835,
    "um": 4836,
    "umb": 4837,
    "ume": 4838,
    "umed": 4839,
    "ument": 4840,
    "uments": 4841,
    "umes": 4842,
    "umn": 4843,
    "ump": 4844,
    "un": 4845,
    "unable": 4846,
    "unch": 4847,
    "und": 4848,
    "undance": 4849,
    "under": 4850,
    "underground": 4851,
    "une": 4852,
    "ung": 4853,
    "unique": 4854,
    "unit": 4855,
    "units": 4856,
    "unity": 4857,
    "univers": 4858,
    "unk": 4859,
    "unt": 4860,
    "until": 4861,
    "unusual": 4862,
    "uous": 4863,
    "up": 4864,
    "upon": 4865,
    "upper": 4866,
    "ur": 4867,
    "ural": 4868,
    "urch": 4869,
    "urder": 4870,
    "ure": 4871,
    "ured": 4872,
    "ures": 4873,
    "urg": 4874,
    "uri": 4875,
    "uries": 4876,
    "uring": 4877,
    "urn": 4878,
    "uro": 4879,
    "urt": 4880,
    "urti": 4881,
    "urus": 4882,
    "ury": 4883,
    "us": 4884,
    "usband": 4885,
    "use": 4886,
    "used": 4887,
    "uses": 4888,
    "useum": 4889,
    "ush": 4890,
    "usic": 4891,
    "usiness": 4892,
    "using": 4893,
    "usion": 4894,
    "ust": 4895,
    "usual": 4896,
    "usually": 4897,
    "usz": 4898,
    "ut": 4899,
    "utch": 4900,
    "ute": 4901,
    "uten": 4902,
    "utenant": 4903,
    "uter": 4904,
    "uth": 4905,
    "ution": 4906,
    "v": 4907,
    "val": 4908,
    "valid": 4909,
    "valu": 4910,
    "value": 4911,
    "van": 4912,
    "vanced": 4913,
    "var": 4914,
    "vari": 4915,
    "variety": 4916,
    "various": 4917,
    "vati": 4918,
    "vation": 4919,
    "ve": 4920,
    "ved": 4921,
    "vel": 4922,
    "velo": 4923,
    "vement": 4924,
    "ven": 4925,
    "vent": 4926,
    "ver": 4927,
    "vers": 4928,
    "verse": 4929,
    "version": 4930,
    "vert": 4931,
    "very": 4932,
    "ves": 4933,
    "vessel": 4934,
    "vessels": 4935,
    "vey": 4936,
    "vi": 4937,
    "via": 4938,
    "viation": 4939,
    "vic": 4940,
    "vice": 4941,
    "vict": 4942,
    "victory": 4943,
    "video": 4944,
    "videos": 4945,
    "vie": 4946,
    "view": 4947,
    "vill": 4948,
    "village": 4949,
    "ville": 4950,
    "ving": 4951,
    "viol": 4952,
    "violence": 4953,
    "vious": 4954,
    "viron": 4955,
    "vironment": 4956,
    "vis": 4957,
    "vised": 4958,
    "vision": 4959,
    "visited": 4960,
    "visitors": 4961,
    "vo": 4962,
    "voc": 4963,
    "vocal": 4964,
    "vocals": 4965,
    "vol": 4966,
    "volume": 4967,
    "von": 4968,
    "voted": 4969,
    "w": 4970,
    "wa": 4971,
    "wall": 4972,
    "wanted": 4973,
    "war": 4974,
    "ward": 4975,
    "was": 4976,
    "watch": 4977,
    "water": 4978,
    "way": 4979,
    "ways": 4980,
    "we": 4981,
    "weap": 4982,
    "weapons": 4983,
    "wear": 4984,
    "web": 4985,
    "website": 4986,
    "week": 4987,
    "weeks": 4988,
    "weight": 4989,
    "well": 4990,
    "went": 4991,
    "were": 4992,
    "west": 4993,
    "western": 4994,
    "wh": 4995,
    "what": 4996,
    "whe": 4997,
    "when": 4998,
    "where": 4999,
    "whereas": 5000,
    "whether": 5001,
    "which": 5002,
    "while": 5003,
    "white": 5004,
    "who": 5005,
    "whole": 5006,
    "whom": 5007,
    "whose": 5008,
    "wick": 5009,
    "wide": 5010,
    "widely": 5011,
    "wides": 5012,
    "widespread": 5013,
    "wife": 5014,
    "will": 5015,
    "willing": 5016,
    "win": 5017,
    "wind": 5018,
    "winds": 5019,
    "wing": 5020,
    "winner": 5021,
    "winning": 5022,
    "wins": 5023,
    "wit": 5024,
    "with": 5025,
    "withdraw": 5026,
    "within": 5027,
    "without": 5028,
    "wo": 5029,
    "wolf": 5030,
    "woman": 5031,
    "women": 5032,
    "won": 5033,
    "wood": 5034,
    "wor": 5035,
    "word": 5036,
    "words": 5037,
    "work": 5038,
    "worked": 5039,
    "working": 5040,
    "works": 5041,
    "world": 5042,
    "worship": 5043,
    "worst": 5044,
    "worth": 5045,
    "would": 5046,
    "wound": 5047,
    "wr": 5048,
    "wrec": 5049,
    "writ": 5050,
    "write": 5051,
    "writer": 5052,
    "writers": 5053,
    "writing": 5054,
    "written": 5055,
    "wrote": 5056,
    "x": 5057,
    "xim": 5058,
    "ximately": 5059,
    "xis": 5060,
    "y": 5061,
    "yan": 5062,
    "yard": 5063,
    "yd": 5064,
    "ydney": 5065,
    "year": 5066,
    "years": 5067,
    "yet": 5068,
    "ying": 5069,
    "yl": 5070,
    "ylide": 5071,
    "yn": 5072,
    "you": 5073,
    "young": 5074,
    "your": 5075,
    "ys": 5076,
    "z": 5077,
    "za": 5078,
    "ze": 5079,
    "zer": 5080,
    "zy": 5081,
    "~": 5082,
    "£": 5083,
    "°": 5084,
    "²": 5085,
    "µ": 5086,
    "µm": 5087,
    "º": 5088,
    "Ä": 5089,
    "Å": 5090,
    "Æ": 5091,
    "Ñ": 5092,
    "Ö": 5093,
    "ß": 5094,
    "á": 5095,
    "ã": 5096,
    "ä": 5097,
    "å": 5098,
    "è": 5099,
    "é": 5100,
    "í": 5101,
    "ñ": 5102,
    "ó": 5103,
    "ów": 5104,
    "ô": 5105,
    "ö": 5106,
    "ú": 5107,
    "ü": 5108,
    "ā": 5109,
    "ă": 5110,
    "ą": 5111,
    "ć": 5112,
    "č": 5113,
    "đ": 5114,
    "ĕ": 5115,
    "ę": 5116,
    "ğ": 5117,
    "Ł": 5118,
    "ł": 5119,
    "ław": 5120,
    "ń": 5121,
    "ński": 5122,
    "Ō": 5123,
    "ō": 5124,
    "ś": 5125,
    "Š": 5126,
    "š": 5127,
    "ū": 5128,
    "ź": 5129,
    "Ż": 5130,
    "ż": 5131,
    "ɪ": 5132,
    "έ": 5133,
    "ή": 5134,
    "ί": 5135,
    "α": 5136,
    "β": 5137,
    "γ": 5138,
    "δ": 5139,
    "θ": 5140,
    "ι": 5141,
    "μ": 5142,
    "ν": 5143,
    "ο": 5144,
    "ρ": 5145,
    "ς": 5146,
    "σ": 5147,
    "τ": 5148,
    "χ": 5149,
    "ό": 5150,
    "К": 5151,
    "а": 5152,
    "в": 5153,
    "з": 5154,
    "й": 5155,
    "к": 5156,
    "н": 5157,
    "р": 5158,
    "с": 5159,
    "ы": 5160,
    "إ": 5161,
    "ت": 5162,
    "ث": 5163,
    "د": 5164,
    "س": 5165,
    "م": 5166,
    "ي": 5167,
    "ก": 5168,
    "ค": 5169,
    "ง": 5170,
    "ช": 5171,
    "ซ": 5172,
    "ญ": 5173,
    "ฐ": 5174,
    "ณ": 5175,
    "ด": 5176,
    "ต": 5177,
    "บ": 5178,
    "ป": 5179,
    "พ": 5180,
    "ภ": 5181,
    "ม": 5182,
    "ย": 5183,
    "ร": 5184,
    "ล": 5185,
    "ว": 5186,
    "ศ": 5187,
    "ษ": 5188,
    "ส": 5189,
    "ห": 5190,
    "อ": 5191,
    "ั": 5192,
    "า": 5193,
    "ิ": 5194,
    "ี": 5195,
    "ึ": 5196,
    "เ": 5197,
    "แ": 5198,
    "ไ": 5199,
    "็": 5200,
    "่": 5201,
    "้": 5202,
    "๊": 5203,
    "์": 5204,
    "ḏ": 5205,
    "ṯ": 5206,
    "ἀ": 5207,
    "ἰ": 5208,
    "ὑ": 5209,
    "–": 5210,
    "—": 5211,
    "‘": 5212,
    "’": 5213,
    "“": 5214,
    "”": 5215,
    "†": 5216,
    "‡": 5217,
    "…": 5218,
    "⁄": 5219,
    "₤": 5220,
    "₹": 5221,
    "→": 5222,
    "−": 5223,
    "い": 5224,
    "う": 5225,
    "か": 5226,
    "が": 5227,
    "き": 5228,
    "く": 5229,
    "し": 5230,
    "た": 5231,
    "つ": 5232,
    "な": 5233,
    "の": 5234,
    "め": 5235,
    "も": 5236,
    "ら": 5237,
    "ァ": 5238,
    "ア": 5239,
    "キ": 5240,
    "ュ": 5241,
    "リ": 5242,
    "ル": 5243,
    "ヴ": 5244,
    "乙": 5245,
    "光": 5246,
    "名": 5247,
    "君": 5248,
    "命": 5249,
    "咲": 5250,
    "場": 5251,
    "女": 5252,
    "戦": 5253,
    "灯": 5254,
    "瘡": 5255,
    "花": 5256,
    "誓": 5257,
    "誰": 5258,
    "赤": 5259,
    "運": 5260,
    "銃": 5261,
    "願": 5262,
    "３": 5263,
    "�": 5264,
    " ": 5265
  },
  "merges": [
    [
      "t",
      "h"
    ],
    [
      "i",
      "n"
    ],
    [
      "e",
      "r"
    ],
    [
      "a",
      "n"
    ],
    [
      "th",
      "e"
    ],
    [
      "o",
      "n"
    ],
    [
      "e",
      "d"
    ],
    [
      "o",
      "r"
    ],
    [
      "a",
      "t"
    ],
    [
      "r",
      "e"
    ],
    [
      "e",
      "n"
    ],
    [
      "a",
      "l"
    ],
    [
      "a",
      "s"
    ],
    [
      "a",
      "r"
    ],
    [
      "i",
      "s"
    ],
    [
      "e",
      "s"
    ],
    [
      "o",
      "f"
    ],
    [
      "an",
      "d"
    ],
    [
      "in",
      "g"
    ],
    [
      "i",
      "t"
    ],
    [
      "t",
      "o"
    ],
    [
      "i",
      "c"
    ],
    [
      "r",
      "o"
    ],
    [
      "s",
      "t"
    ],
    [
      "i",
      "on"
    ],
    [
      "h",
      "e"
    ],
    [
      "o",
      "u"
    ],
    [
      "l",
      "e"
    ],
    [
      "i",
      "l"
    ],
    [
      "s",
      "e"
    ],
    [
      "o",
      "l"
    ],
    [
      "a",
      "c"
    ],
    [
      "en",
      "t"
    ],
    [
      "a",
      "d"
    ],
    [
      "f",
      "or"
    ],
    [
      "a",
      "m"
    ],
    [
      "o",
      "m"
    ],
    [
      "l",
      "y"
    ],
    [
      "w",
      "as"
    ],
    [
      "b",
      "e"
    ],
    [
      "c",
      "h"
    ],
    [
      "u",
      "r"
    ],
    [
      "i",
      "r"
    ],
    [
      "i",
      "m"
    ],
    [
      "d",
      "e"
    ],
    [
      "@",
      "-"
    ],
    [
      "@-",
      "@"
    ],
    [
      "v",
      "e"
    ],
    [
      "u",
      "n"
    ],
    [
      "t",
      "er"
    ],
    [
      "i",
      "th"
    ],
    [
      "o",
      "w"
    ],
    [
      "T",
      "he"
    ],
    [
      "i",
      "g"
    ],
    [
      "at",
      "ion"
    ],
    [
      "a",
      "y"
    ],
    [
      "w",
      "h"
    ],
    [
      "w",
      "ith"
    ],
    [
      "v",
      "er"
    ],
    [
      "th",
      "at"
    ],
    [
      "c",
      "t"
    ],
    [
      "c",
      "on"
    ],
    [
      "u",
      "m"
    ],
    [
      "e",
      "l"
    ],
    [
      "o",
      "t"
    ],
    [
      "u",
      "s"
    ],
    [
      "a",
      "g"
    ],
    [
      "'",
      "s"
    ],
    [
      "er",
      "e"
    ],
    [
      "u",
      "l"
    ],
    [
      "c",
      "e"
    ],
    [
      "i",
      "d"
    ],
    [
      "b",
      "y"
    ],
    [
      "h",
      "is"
    ],
    [
      "e",
      "t"
    ],
    [
      "a",
      "p"
    ],
    [
      "u",
      "t"
    ],
    [
      "1",
      "9"
    ],
    [
      "p",
      "l"
    ],
    [
      "t",
      "r"
    ],
    [
      "ro",
      "m"
    ],
    [
      "er",
      "s"
    ],
    [
      "l",
      "o"
    ],
    [
      "e",
      "m"
    ],
    [
      "a",
      "in"
    ],
    [
      "re",
      "s"
    ],
    [
      "c",
      "om"
    ],
    [
      "2",
      "0"
    ],
    [
      "al",
      "l"
    ],
    [
      "s",
      "u"
    ],
    [
      "s",
      "h"
    ],
    [
      "i",
      "es"
    ],
    [
      "I",
      "n"
    ],
    [
      "a",
      "b"
    ],
    [
      "p",
      "e"
    ],
    [
      "o",
      "d"
    ],
    [
      "is",
      "t"
    ],
    [
      "p",
      "ro"
    ],
    [
      "i",
      "v"
    ],
    [
      "es",
      "t"
    ],
    [
      "w",
      "ere"
    ],
    [
      "a",
      "re"
    ],
    [
      "o",
      "p"
    ],
    [
      "e",
      "x"
    ],
    [
      "f",
      "rom"
    ],
    [
      "or",
      "d"
    ],
    [
      "ar",
      "t"
    ],
    [
      "is",
      "h"
    ],
    [
      "at",
      "e"
    ],
    [
      "i",
      "f"
    ],
    [
      "e",
      "ar"
    ],
    [
      "an",
      "t"
    ],
    [
      "ig",
      "h"
    ],
    [
      "e",
      "w"
    ],
    [
      "s",
      "o"
    ],
    [
      "en",
      "d"
    ],
    [
      "p",
      "o"
    ],
    [
      "ou",
      "n"
    ],
    [
      "th",
      "er"
    ],
    [
      "ic",
      "h"
    ],
    [
      "a",
      "v"
    ],
    [
      "or",
      "t"
    ],
    [
      "b",
      "er"
    ],
    [
      "a",
      "f"
    ],
    [
      "at",
      "ed"
    ],
    [
      "a",
      "k"
    ],
    [
      "m",
      "an"
    ],
    [
      "t",
      "e"
    ],
    [
      "c",
      "l"
    ],
    [
      "r",
      "i"
    ],
    [
      "am",
      "e"
    ],
    [
      "g",
      "h"
    ],
    [
      "ar",
      "d"
    ],
    [
      "p",
      "er"
    ],
    [
      "on",
      "g"
    ],
    [
      "r",
      "it"
    ],
    [
      "il",
      "l"
    ],
    [
      "l",
      "d"
    ],
    [
      "es",
      "s"
    ],
    [
      "i",
      "ve"
    ],
    [
      "it",
      "y"
    ],
    [
      "i",
      "p"
    ],
    [
      "h",
      "ad"
    ],
    [
      "ow",
      "n"
    ],
    [
      "q",
      "u"
    ],
    [
      "un",
      "d"
    ],
    [
      "m",
      "ent"
    ],
    [
      "ac",
      "t"
    ],
    [
      "on",
      "e"
    ],
    [
      "ou",
      "t"
    ],
    [
      "wh",
      "ich"
    ],
    [
      "u",
      "p"
    ],
    [
      "i",
      "al"
    ],
    [
      "i",
      "an"
    ],
    [
      "m",
      "o"
    ],
    [
      "r",
      "u"
    ],
    [
      "t",
      "w"
    ],
    [
      "u",
      "d"
    ],
    [
      "o",
      "ver"
    ],
    [
      "i",
      "a"
    ],
    [
      "p",
      "t"
    ],
    [
      "C",
      "h"
    ],
    [
      "n",
      "ot"
    ],
    [
      "o",
      "g"
    ],
    [
      "a",
      "ve"
    ],
    [
      "ou",
      "r"
    ],
    [
      "ac",
      "k"
    ],
    [
      "l",
      "i"
    ],
    [
      "h",
      "er"
    ],
    [
      "0",
      "0"
    ],
    [
      "p",
      "r"
    ],
    [
      "p",
      "ort"
    ],
    [
      "as",
      "s"
    ],
    [
      "igh",
      "t"
    ],
    [
      "ar",
      "y"
    ],
    [
      "d",
      "u"
    ],
    [
      "20",
      "0"
    ],
    [
      "b",
      "ut"
    ],
    [
      "or",
      "k"
    ],
    [
      "i",
      "de"
    ],
    [
      "in",
      "e"
    ],
    [
      "ic",
      "al"
    ],
    [
      "a",
      "w"
    ],
    [
      "re",
      "c"
    ],
    [
      "g",
      "e"
    ],
    [
      "in",
      "t"
    ],
    [
      "al",
      "so"
    ],
    [
      "e",
      "v"
    ],
    [
      "o",
      "c"
    ],
    [
      "or",
      "e"
    ],
    [
      "f",
      "ir"
    ],
    [
      "S",
      "t"
    ],
    [
      "t",
      "im"
    ],
    [
      "r",
      "an"
    ],
    [
      "it",
      "s"
    ],
    [
      "for",
      "m"
    ],
    [
      "as",
      "t"
    ],
    [
      "the",
      "ir"
    ],
    [
      "a",
      "ir"
    ],
    [
      "s",
      "c"
    ],
    [
      "it",
      "ion"
    ],
    [
      "u",
      "b"
    ],
    [
      "ig",
      "n"
    ],
    [
      "H",
      "e"
    ],
    [
      "ou",
      "s"
    ],
    [
      "ac",
      "h"
    ],
    [
      "20",
      "1"
    ],
    [
      "pl",
      "ay"
    ],
    [
      "u",
      "re"
    ],
    [
      "p",
      "art"
    ],
    [
      "oun",
      "d"
    ],
    [
      "h",
      "as"
    ],
    [
      "ol",
      "d"
    ],
    [
      "l",
      "ow"
    ],
    [
      "ou",
      "ld"
    ],
    [
      "n",
      "e"
    ],
    [
      "at",
      "t"
    ],
    [
      "b",
      "o"
    ],
    [
      "om",
      "e"
    ],
    [
      "A",
      "n"
    ],
    [
      "k",
      "e"
    ],
    [
      "at",
      "er"
    ],
    [
      "p",
      "res"
    ],
    [
      "fir",
      "st"
    ],
    [
      "u",
      "e"
    ],
    [
      "of",
      "f"
    ],
    [
      "T",
      "h"
    ],
    [
      "ct",
      "ion"
    ],
    [
      "u",
      "st"
    ],
    [
      "i",
      "re"
    ],
    [
      "wh",
      "o"
    ],
    [
      "v",
      "i"
    ],
    [
      "ou",
      "gh"
    ],
    [
      "po",
      "s"
    ],
    [
      "ar",
      "k"
    ],
    [
      "o",
      "ther"
    ],
    [
      "s",
      "p"
    ],
    [
      "ur",
      "ing"
    ],
    [
      "ul",
      "t"
    ],
    [
      "d",
      "is"
    ],
    [
      "A",
      "l"
    ],
    [
      "@",
      "."
    ],
    [
      "@.",
      "@"
    ],
    [
      "as",
      "on"
    ],
    [
      "el",
      "l"
    ],
    [
      "il",
      "m"
    ],
    [
      "tw",
      "o"
    ],
    [
      "th",
      "is"
    ],
    [
      "be",
      "en"
    ],
    [
      "c",
      "o"
    ],
    [
      "s",
      "er"
    ],
    [
      "c",
      "re"
    ],
    [
      "s",
      "pe"
    ],
    [
      "h",
      "ave"
    ],
    [
      "1",
      "8"
    ],
    [
      "a",
      "u"
    ],
    [
      "or",
      "y"
    ],
    [
      "sh",
      "ip"
    ],
    [
      "m",
      "on"
    ],
    [
      "ation",
      "s"
    ],
    [
      "y",
      "ear"
    ],
    [
      "re",
      "e"
    ],
    [
      "f",
      "e"
    ],
    [
      "an",
      "s"
    ],
    [
      "ag",
      "e"
    ],
    [
      "d",
      "es"
    ],
    [
      "b",
      "um"
    ],
    [
      "al",
      "ly"
    ],
    [
      "g",
      "ro"
    ],
    [
      "con",
      "t"
    ],
    [
      "o",
      "k"
    ],
    [
      "g",
      "od"
    ],
    [
      "in",
      "d"
    ],
    [
      "en",
      "ce"
    ],
    [
      "com",
      "p"
    ],
    [
      "ar",
      "ch"
    ],
    [
      "p",
      "h"
    ],
    [
      "it",
      "ies"
    ],
    [
      "al",
      "bum"
    ],
    [
      "A",
      "r"
    ],
    [
      "U",
      "n"
    ],
    [
      "af",
      "ter"
    ],
    [
      "s",
      "he"
    ],
    [
      "i",
      "le"
    ],
    [
      "g",
      "r"
    ],
    [
      "ad",
      "e"
    ],
    [
      "ol",
      "og"
    ],
    [
      "f",
      "er"
    ],
    [
      "m",
      "e"
    ],
    [
      "I",
      "t"
    ],
    [
      "i",
      "z"
    ],
    [
      "tim",
      "e"
    ],
    [
      "it",
      "e"
    ],
    [
      "@",
      ","
    ],
    [
      "@,",
      "@"
    ],
    [
      "it",
      "ed"
    ],
    [
      "f",
      "ilm"
    ],
    [
      "re",
      "g"
    ],
    [
      "ord",
      "an"
    ],
    [
      "c",
      "k"
    ],
    [
      "se",
      "ason"
    ],
    [
      "m",
      "er"
    ],
    [
      "l",
      "and"
    ],
    [
      "J",
      "ordan"
    ],
    [
      "P",
      "ol"
    ],
    [
      "S",
      "h"
    ],
    [
      "c",
      "ed"
    ],
    [
      "p",
      "re"
    ],
    [
      "m",
      "ain"
    ],
    [
      "a",
      "th"
    ],
    [
      "as",
      "ed"
    ],
    [
      "n",
      "ew"
    ],
    [
      "a",
      "e"
    ],
    [
      "r",
      "on"
    ],
    [
      "i",
      "e"
    ],
    [
      "l",
      "es"
    ],
    [
      "th",
      "ough"
    ],
    [
      "i",
      "ed"
    ],
    [
      "in",
      "cl"
    ],
    [
      "und",
      "er"
    ],
    [
      "st",
      "r"
    ],
    [
      "ub",
      "l"
    ],
    [
      "as",
      "e"
    ],
    [
      "m",
      "ore"
    ],
    [
      "an",
      "ce"
    ],
    [
      "w",
      "ork"
    ],
    [
      "in",
      "ter"
    ],
    [
      "ent",
      "s"
    ],
    [
      "19",
      "9"
    ],
    [
      "i",
      "b"
    ],
    [
      "u",
      "gh"
    ],
    [
      "l",
      "ar"
    ],
    [
      "c",
      "es"
    ],
    [
      "ab",
      "le"
    ],
    [
      "ic",
      "t"
    ],
    [
      "c",
      "r"
    ],
    [
      "f",
      "l"
    ],
    [
      "the",
      "y"
    ],
    [
      "mo",
      "st"
    ],
    [
      "s",
      "a"
    ],
    [
      "B",
      "rit"
    ],
    [
      "ro",
      "ugh"
    ],
    [
      "h",
      "im"
    ],
    [
      "rec",
      "ord"
    ],
    [
      "al",
      "s"
    ],
    [
      "se",
      "l"
    ],
    [
      "ic",
      "e"
    ],
    [
      "an",
      "n"
    ],
    [
      "f",
      "in"
    ],
    [
      "l",
      "ed"
    ],
    [
      "R",
      "e"
    ],
    [
      "re",
      "t"
    ],
    [
      "spe",
      "c"
    ],
    [
      "p",
      "ubl"
    ],
    [
      "g",
      "an"
    ],
    [
      "re",
      "n"
    ],
    [
      "c",
      "ess"
    ],
    [
      "in",
      "to"
    ],
    [
      "con",
      "d"
    ],
    [
      "re",
      "le"
    ],
    [
      "e",
      "ver"
    ],
    [
      "n",
      "o"
    ],
    [
      "he",
      "el"
    ],
    [
      "the",
      "m"
    ],
    [
      "t",
      "en"
    ],
    [
      "W",
      "heel"
    ],
    [
      "ur",
      "n"
    ],
    [
      "s",
      "on"
    ],
    [
      "F",
      "e"
    ],
    [
      "c",
      "ent"
    ],
    [
      "Wheel",
      "er"
    ],
    [
      "ing",
      "s"
    ],
    [
      "ac",
      "e"
    ],
    [
      "e",
      "f"
    ],
    [
      "o",
      "b"
    ],
    [
      "il",
      "d"
    ],
    [
      "ct",
      "ed"
    ],
    [
      "us",
      "ed"
    ],
    [
      "ul",
      "ar"
    ],
    [
      "v",
      "ed"
    ],
    [
      "s",
      "ing"
    ],
    [
      "m",
      "y"
    ],
    [
      "ic",
      "k"
    ],
    [
      "p",
      "ed"
    ],
    [
      "incl",
      "ud"
    ],
    [
      "t",
      "y"
    ],
    [
      "s",
      "y"
    ],
    [
      "ae",
      "olog"
    ],
    [
      "t",
      "ed"
    ],
    [
      "g",
      "o"
    ],
    [
      "pro",
      "du"
    ],
    [
      "j",
      "e"
    ],
    [
      "m",
      "in"
    ],
    [
      "s",
      "k"
    ],
    [
      "d",
      "uring"
    ],
    [
      "g",
      "en"
    ],
    [
      "or",
      "s"
    ],
    [
      "w",
      "e"
    ],
    [
      "ion",
      "s"
    ],
    [
      "su",
      "b"
    ],
    [
      "on",
      "ly"
    ],
    [
      "r",
      "a"
    ],
    [
      "st",
      "ru"
    ],
    [
      "r",
      "ed"
    ],
    [
      "S",
      "e"
    ],
    [
      "n",
      "um"
    ],
    [
      "on",
      "y"
    ],
    [
      "at",
      "es"
    ],
    [
      "in",
      "s"
    ],
    [
      "w",
      "ould"
    ],
    [
      "us",
      "ic"
    ],
    [
      "c",
      "ame"
    ],
    [
      "for",
      "e"
    ],
    [
      "A",
      "s"
    ],
    [
      "er",
      "ed"
    ],
    [
      "h",
      "igh"
    ],
    [
      "com",
      "m"
    ],
    [
      "s",
      "ome"
    ],
    [
      "g",
      "ame"
    ],
    [
      "p",
      "ol"
    ],
    [
      "N",
      "o"
    ],
    [
      "ul",
      "l"
    ],
    [
      "f",
      "our"
    ],
    [
      "be",
      "ing"
    ],
    [
      "th",
      "ree"
    ],
    [
      "t",
      "s"
    ],
    [
      "i",
      "x"
    ],
    [
      "ish",
      "ed"
    ],
    [
      "ation",
      "al"
    ],
    [
      "ers",
      "on"
    ],
    [
      "man",
      "y"
    ],
    [
      "or",
      "th"
    ],
    [
      "T",
      "own"
    ],
    [
      "re",
      "l"
    ],
    [
      "po",
      "int"
    ],
    [
      "god",
      "s"
    ],
    [
      "an",
      "g"
    ],
    [
      "d",
      "r"
    ],
    [
      "Brit",
      "ish"
    ],
    [
      "w",
      "ay"
    ],
    [
      "In",
      "d"
    ],
    [
      "c",
      "i"
    ],
    [
      "v",
      "is"
    ],
    [
      "a",
      "il"
    ],
    [
      "G",
      "er"
    ],
    [
      "m",
      "ber"
    ],
    [
      "i",
      "el"
    ],
    [
      "ag",
      "ain"
    ],
    [
      "con",
      "s"
    ],
    [
      "ard",
      "s"
    ],
    [
      "u",
      "se"
    ],
    [
      "af",
      "t"
    ],
    [
      "th",
      "rough"
    ],
    [
      "ch",
      "ar"
    ],
    [
      "ver",
      "s"
    ],
    [
      "I",
      "I"
    ],
    [
      "k",
      "n"
    ],
    [
      "c",
      "ol"
    ],
    [
      "O",
      "n"
    ],
    [
      "g",
      "y"
    ],
    [
      "o",
      "y"
    ],
    [
      "w",
      "rit"
    ],
    [
      "re",
      "at"
    ],
    [
      "D",
      "e"
    ],
    [
      "a",
      "z"
    ],
    [
      "wh",
      "ile"
    ],
    [
      "l",
      "ater"
    ],
    [
      "Y",
      "ork"
    ],
    [
      "te",
      "am"
    ],
    [
      "ter",
      "s"
    ],
    [
      "se",
      "cond"
    ],
    [
      "b",
      "u"
    ],
    [
      "am",
      "es"
    ],
    [
      "ak",
      "e"
    ],
    [
      "je",
      "ct"
    ],
    [
      "s",
      "ong"
    ],
    [
      "e",
      "en"
    ],
    [
      "ol",
      "low"
    ],
    [
      "wh",
      "ere"
    ],
    [
      "an",
      "y"
    ],
    [
      "s",
      "ur"
    ],
    [
      "h",
      "y"
    ],
    [
      "ab",
      "out"
    ],
    [
      "su",
      "ch"
    ],
    [
      "ter",
      "n"
    ],
    [
      "c",
      "er"
    ],
    [
      "the",
      "n"
    ],
    [
      "m",
      "ade"
    ],
    [
      "ic",
      "an"
    ],
    [
      "t",
      "on"
    ],
    [
      "A",
      "f"
    ],
    [
      "c",
      "ar"
    ],
    [
      "o",
      "se"
    ],
    [
      "i",
      "ous"
    ],
    [
      "th",
      "an"
    ],
    [
      "wh",
      "en"
    ],
    [
      "e",
      "le"
    ],
    [
      "s",
      "end"
    ],
    [
      "ou",
      "th"
    ],
    [
      "S",
      "he"
    ],
    [
      "Pol",
      "ish"
    ],
    [
      "en",
      "s"
    ],
    [
      "00",
      "0"
    ],
    [
      "or",
      "n"
    ],
    [
      "N",
      "ew"
    ],
    [
      "pres",
      "ent"
    ],
    [
      "o",
      "s"
    ],
    [
      "Ch",
      "r"
    ],
    [
      "or",
      "ld"
    ],
    [
      "w",
      "ar"
    ],
    [
      "le",
      "ad"
    ],
    [
      "Town",
      "send"
    ],
    [
      "is",
      "s"
    ],
    [
      "at",
      "ing"
    ],
    [
      "E",
      "n"
    ],
    [
      "c",
      "lo"
    ],
    [
      "his",
      "t"
    ],
    [
      "m",
      "em"
    ],
    [
      "num",
      "ber"
    ],
    [
      "b",
      "all"
    ],
    [
      "d",
      "ay"
    ],
    [
      "ap",
      "pe"
    ],
    [
      "L",
      "e"
    ],
    [
      "w",
      "ell"
    ],
    [
      "er",
      "al"
    ],
    [
      "su",
      "p"
    ],
    [
      "l",
      "ong"
    ],
    [
      "E",
      "gy"
    ],
    [
      "ic",
      "s"
    ],
    [
      "t",
      "ain"
    ],
    [
      "m",
      "a"
    ],
    [
      "be",
      "fore"
    ],
    [
      "ar",
      "s"
    ],
    [
      "m",
      "et"
    ],
    [
      "d",
      "o"
    ],
    [
      "publ",
      "ic"
    ],
    [
      "s",
      "ign"
    ],
    [
      "m",
      "ed"
    ],
    [
      "se",
      "ver"
    ],
    [
      "m",
      "as"
    ],
    [
      "o",
      "st"
    ],
    [
      "f",
      "t"
    ],
    [
      "19",
      "8"
    ],
    [
      "il",
      "y"
    ],
    [
      "arch",
      "aeolog"
    ],
    [
      "f",
      "ollow"
    ],
    [
      "ut",
      "e"
    ],
    [
      "Egy",
      "pt"
    ],
    [
      "bo",
      "th"
    ],
    [
      "li",
      "ke"
    ],
    [
      "am",
      "p"
    ],
    [
      "if",
      "ic"
    ],
    [
      "re",
      "main"
    ],
    [
      "g",
      "u"
    ],
    [
      "ist",
      "s"
    ],
    [
      "Ger",
      "man"
    ],
    [
      "iel",
      "d"
    ],
    [
      "r",
      "y"
    ],
    [
      "ire",
      "ct"
    ],
    [
      "is",
      "ed"
    ],
    [
      "iv",
      "ed"
    ],
    [
      "o",
      "h"
    ],
    [
      "year",
      "s"
    ],
    [
      "ro",
      "w"
    ],
    [
      "ch",
      "o"
    ],
    [
      "c",
      "av"
    ],
    [
      "to",
      "p"
    ],
    [
      "b",
      "ack"
    ],
    [
      "c",
      "an"
    ],
    [
      "C",
      "om"
    ],
    [
      "in",
      "v"
    ],
    [
      "vi",
      "ew"
    ],
    [
      "be",
      "tw"
    ],
    [
      "betw",
      "een"
    ],
    [
      "op",
      "er"
    ],
    [
      "e",
      "p"
    ],
    [
      "c",
      "ial"
    ],
    [
      "sel",
      "f"
    ],
    [
      "al",
      "e"
    ],
    [
      "th",
      "ere"
    ],
    [
      "Chr",
      "ist"
    ],
    [
      "lo",
      "c"
    ],
    [
      "the",
      "se"
    ],
    [
      "it",
      "t"
    ],
    [
      "u",
      "al"
    ],
    [
      "kn",
      "own"
    ],
    [
      "ow",
      "er"
    ],
    [
      "v",
      "ar"
    ],
    [
      "m",
      "usic"
    ],
    [
      "c",
      "ri"
    ],
    [
      "Af",
      "ter"
    ],
    [
      "B",
      "l"
    ],
    [
      "on",
      "d"
    ],
    [
      "19",
      "4"
    ],
    [
      "r",
      "al"
    ],
    [
      "fe",
      "at"
    ],
    [
      "n",
      "ing"
    ],
    [
      "m",
      "b"
    ],
    [
      "Fe",
      "y"
    ],
    [
      "W",
      "h"
    ],
    [
      "rele",
      "ased"
    ],
    [
      "a",
      "h"
    ],
    [
      "ant",
      "im"
    ],
    [
      "be",
      "gan"
    ],
    [
      "d",
      "if"
    ],
    [
      "T",
      "his"
    ],
    [
      "cont",
      "in"
    ],
    [
      "C",
      "l"
    ],
    [
      "be",
      "came"
    ],
    [
      "d",
      "er"
    ],
    [
      "appe",
      "ar"
    ],
    [
      "st",
      "ud"
    ],
    [
      "A",
      "t"
    ],
    [
      "1",
      "5"
    ],
    [
      "b",
      "r"
    ],
    [
      "cr",
      "aft"
    ],
    [
      "se",
      "t"
    ],
    [
      "c",
      "ould"
    ],
    [
      "An",
      "d"
    ],
    [
      "w",
      "in"
    ],
    [
      "c",
      "ur"
    ],
    [
      "ad",
      "d"
    ],
    [
      "ear",
      "ly"
    ],
    [
      "f",
      "ul"
    ],
    [
      "1",
      "0"
    ],
    [
      "ex",
      "t"
    ],
    [
      "v",
      "en"
    ],
    [
      "s",
      "s"
    ],
    [
      "s",
      "m"
    ],
    [
      "sc",
      "or"
    ],
    [
      "i",
      "o"
    ],
    [
      "p",
      "rom"
    ],
    [
      "c",
      "ord"
    ],
    [
      "if",
      "e"
    ],
    [
      "A",
      "."
    ],
    [
      "gro",
      "und"
    ],
    [
      "u",
      "res"
    ],
    [
      "re",
      "ce"
    ],
    [
      "f",
      "ound"
    ],
    [
      "c",
      "all"
    ],
    [
      "en",
      "g"
    ],
    [
      "sever",
      "al"
    ],
    [
      "Un",
      "ited"
    ],
    [
      "r",
      "ap"
    ],
    [
      "f",
      "ield"
    ],
    [
      "is",
      "e"
    ],
    [
      "char",
      "ac"
    ],
    [
      "e",
      "k"
    ],
    [
      "over",
      "n"
    ],
    [
      "3",
      "0"
    ],
    [
      "c",
      "oun"
    ],
    [
      "l",
      "a"
    ],
    [
      "l",
      "ay"
    ],
    [
      "ser",
      "v"
    ],
    [
      "off",
      "ic"
    ],
    [
      "c",
      "ap"
    ],
    [
      "A",
      "mer"
    ],
    [
      "ar",
      "m"
    ],
    [
      "g",
      "g"
    ],
    [
      "h",
      "um"
    ],
    [
      "ro",
      "l"
    ],
    [
      "de",
      "p"
    ],
    [
      "Al",
      "l"
    ],
    [
      "s",
      "ide"
    ],
    [
      "ig",
      "in"
    ],
    [
      "d",
      "iv"
    ],
    [
      "ow",
      "ever"
    ],
    [
      "ion",
      "al"
    ],
    [
      "b",
      "ed"
    ],
    [
      "des",
      "cri"
    ],
    [
      "ag",
      "ue"
    ],
    [
      "c",
      "rit"
    ],
    [
      "at",
      "ive"
    ],
    [
      "o",
      "ot"
    ],
    [
      "ur",
      "y"
    ],
    [
      "c",
      "are"
    ],
    [
      "d",
      "ol"
    ],
    [
      "oc",
      "k"
    ],
    [
      "id",
      "ed"
    ],
    [
      "id",
      "ent"
    ],
    [
      "as",
      "h"
    ],
    [
      "includ",
      "ing"
    ],
    [
      "cho",
      "ol"
    ],
    [
      "ve",
      "lo"
    ],
    [
      "again",
      "st"
    ],
    [
      "su",
      "c"
    ],
    [
      "de",
      "c"
    ],
    [
      "end",
      "ed"
    ],
    [
      "et",
      "y"
    ],
    [
      "cl",
      "ass"
    ],
    [
      "C",
      "on"
    ],
    [
      "l",
      "s"
    ],
    [
      "im",
      "e"
    ],
    [
      "et",
      "s"
    ],
    [
      "s",
      "ed"
    ],
    [
      "C",
      "ol"
    ],
    [
      "al",
      "k"
    ],
    [
      "ment",
      "s"
    ],
    [
      "am",
      "ed"
    ],
    [
      "st",
      "it"
    ],
    [
      "ret",
      "urn"
    ],
    [
      "M",
      "ay"
    ],
    [
      "tr",
      "ans"
    ],
    [
      "b",
      "ers"
    ],
    [
      "a",
      "i"
    ],
    [
      "g",
      "un"
    ],
    [
      "c",
      "over"
    ],
    [
      "in",
      "es"
    ],
    [
      "per",
      "i"
    ],
    [
      "ag",
      "ed"
    ],
    [
      "in",
      "ed"
    ],
    [
      "ill",
      "ion"
    ],
    [
      "Egypt",
      "ian"
    ],
    [
      "de",
      "velo"
    ],
    [
      "ak",
      "ing"
    ],
    [
      "F",
      "or"
    ],
    [
      "to",
      "w"
    ],
    [
      "d",
      "am"
    ],
    [
      "st",
      "ate"
    ],
    [
      "J",
      "oh"
    ],
    [
      "so",
      "ci"
    ],
    [
      "g",
      "old"
    ],
    [
      "N",
      "B"
    ],
    [
      "antim",
      "ony"
    ],
    [
      "iz",
      "ed"
    ],
    [
      "ce",
      "pt"
    ],
    [
      "suc",
      "cess"
    ],
    [
      "p",
      "op"
    ],
    [
      "or",
      "igin"
    ],
    [
      "A",
      "c"
    ],
    [
      "ship",
      "s"
    ],
    [
      "des",
      "ign"
    ],
    [
      "c",
      "au"
    ],
    [
      "c",
      "ut"
    ],
    [
      "g",
      "ust"
    ],
    [
      "he",
      "ad"
    ],
    [
      "r",
      "ic"
    ],
    [
      "tr",
      "y"
    ],
    [
      "air",
      "craft"
    ],
    [
      "de",
      "ities"
    ],
    [
      "er",
      "n"
    ],
    [
      "1",
      "2"
    ],
    [
      "om",
      "in"
    ],
    [
      "s",
      "is"
    ],
    [
      "Christ",
      "mas"
    ],
    [
      "spec",
      "ies"
    ],
    [
      "dol",
      "lar"
    ],
    [
      "ir",
      "ed"
    ],
    [
      "at",
      "ch"
    ],
    [
      "st",
      "art"
    ],
    [
      "B",
      "e"
    ],
    [
      "pl",
      "ac"
    ],
    [
      "care",
      "er"
    ],
    [
      "con",
      "tr"
    ],
    [
      "p",
      "ar"
    ],
    [
      "he",
      "l"
    ],
    [
      "is",
      "su"
    ],
    [
      "h",
      "al"
    ],
    [
      "w",
      "o"
    ],
    [
      "Joh",
      "n"
    ],
    [
      "st",
      "and"
    ],
    [
      "No",
      "ve"
    ],
    [
      "l",
      "ist"
    ],
    [
      "ran",
      "g"
    ],
    [
      "op",
      "le"
    ],
    [
      "1",
      "7"
    ],
    [
      "sh",
      "ow"
    ],
    [
      "on",
      "es"
    ],
    [
      "l",
      "ing"
    ],
    [
      "play",
      "ed"
    ],
    [
      "ur",
      "al"
    ],
    [
      "st",
      "e"
    ],
    [
      "re",
      "port"
    ],
    [
      "sm",
      "all"
    ],
    [
      "ser",
      "ies"
    ],
    [
      "ap",
      "p"
    ],
    [
      "as",
      "k"
    ],
    [
      "itt",
      "le"
    ],
    [
      "i",
      "um"
    ],
    [
      "d",
      "irect"
    ],
    [
      "id",
      "es"
    ],
    [
      "is",
      "m"
    ],
    [
      "in",
      "ce"
    ],
    [
      "201",
      "3"
    ],
    [
      "G",
      "A"
    ],
    [
      "Nove",
      "mber"
    ],
    [
      "res",
      "s"
    ],
    [
      "al",
      "though"
    ],
    [
      "cau",
      "se"
    ],
    [
      "ro",
      "und"
    ],
    [
      "b",
      "ro"
    ],
    [
      "s",
      "ame"
    ],
    [
      "pos",
      "ition"
    ],
    [
      "l",
      "ight"
    ],
    [
      "sa",
      "id"
    ],
    [
      "g",
      "l"
    ],
    [
      "m",
      "ar"
    ],
    [
      "T",
      "ru"
    ],
    [
      "W",
      "ar"
    ],
    [
      "res",
      "ult"
    ],
    [
      "d",
      "own"
    ],
    [
      "on",
      "s"
    ],
    [
      "act",
      "ion"
    ],
    [
      "O",
      "c"
    ],
    [
      "m",
      "illion"
    ],
    [
      "c",
      "ult"
    ],
    [
      "m",
      "il"
    ],
    [
      "un",
      "g"
    ],
    [
      "comp",
      "le"
    ],
    [
      "o",
      "th"
    ],
    [
      "call",
      "ed"
    ],
    [
      "1",
      "1"
    ],
    [
      "gro",
      "up"
    ],
    [
      "iv",
      "a"
    ],
    [
      "ib",
      "le"
    ],
    [
      "dif",
      "fer"
    ],
    [
      "ur",
      "t"
    ],
    [
      "pl",
      "ace"
    ],
    [
      "un",
      "e"
    ],
    [
      "part",
      "ic"
    ],
    [
      "d",
      "id"
    ],
    [
      "b",
      "ar"
    ],
    [
      "f",
      "am"
    ],
    [
      "hist",
      "ory"
    ],
    [
      "f",
      "le"
    ],
    [
      "u",
      "ally"
    ],
    [
      "f",
      "ive"
    ],
    [
      "p",
      "ower"
    ],
    [
      "le",
      "g"
    ],
    [
      "b",
      "od"
    ],
    [
      "pro",
      "ject"
    ],
    [
      "tr",
      "ack"
    ],
    [
      "re",
      "present"
    ],
    [
      "a",
      "ther"
    ],
    [
      "l",
      "ine"
    ],
    [
      "o",
      "x"
    ],
    [
      "Sh",
      "iva"
    ],
    [
      "NB",
      "A"
    ],
    [
      "lar",
      "ge"
    ],
    [
      "op",
      "en"
    ],
    [
      "rece",
      "ived"
    ],
    [
      "bo",
      "ok"
    ],
    [
      "e",
      "ach"
    ],
    [
      "A",
      "u"
    ],
    [
      "re",
      "ad"
    ],
    [
      "19",
      "3"
    ],
    [
      "il",
      "lo"
    ],
    [
      "ath",
      "an"
    ],
    [
      "ir",
      "d"
    ],
    [
      "g",
      "iv"
    ],
    [
      "al",
      "ong"
    ],
    [
      "oun",
      "g"
    ],
    [
      "il",
      "ity"
    ],
    [
      "sup",
      "port"
    ],
    [
      "s",
      "ix"
    ],
    [
      "form",
      "ed"
    ],
    [
      "m",
      "ark"
    ],
    [
      "Oc",
      "to"
    ],
    [
      "Octo",
      "ber"
    ],
    [
      "N",
      "orth"
    ],
    [
      "i",
      "vers"
    ],
    [
      "Ind",
      "ia"
    ],
    [
      "J",
      "an"
    ],
    [
      "pe",
      "ct"
    ],
    [
      "l",
      "ess"
    ],
    [
      "com",
      "e"
    ],
    [
      "j",
      "or"
    ],
    [
      "cons",
      "id"
    ],
    [
      "n",
      "amed"
    ],
    [
      "be",
      "li"
    ],
    [
      "19",
      "5"
    ],
    [
      "A",
      "ir"
    ],
    [
      "Tru",
      "j"
    ],
    [
      "m",
      "iss"
    ],
    [
      "b",
      "att"
    ],
    [
      "t",
      "ing"
    ],
    [
      "em",
      "p"
    ],
    [
      "om",
      "an"
    ],
    [
      "con",
      "stru"
    ],
    [
      "ur",
      "ed"
    ],
    [
      "aw",
      "ay"
    ],
    [
      "A",
      "ust"
    ],
    [
      "descri",
      "bed"
    ],
    [
      "A",
      "w"
    ],
    [
      "Truj",
      "illo"
    ],
    [
      "ex",
      "cav"
    ],
    [
      "N",
      "athan"
    ],
    [
      "ap",
      "pro"
    ],
    [
      "qu",
      "ad"
    ],
    [
      "p",
      "erson"
    ],
    [
      "h",
      "ome"
    ],
    [
      "to",
      "ok"
    ],
    [
      "u",
      "ch"
    ],
    [
      ".",
      "."
    ],
    [
      "fl",
      "u"
    ],
    [
      "A",
      "pr"
    ],
    [
      "Apr",
      "il"
    ],
    [
      "cord",
      "ing"
    ],
    [
      "200",
      "7"
    ],
    [
      "C",
      "ar"
    ],
    [
      "es",
      "e"
    ],
    [
      "sing",
      "le"
    ],
    [
      "1",
      "3"
    ],
    [
      "ord",
      "er"
    ],
    [
      "ve",
      "l"
    ],
    [
      "le",
      "ft"
    ],
    [
      "A",
      "d"
    ],
    [
      "an",
      "k"
    ],
    [
      "b",
      "and"
    ],
    [
      "st",
      "ar"
    ],
    [
      "S",
      "b"
    ],
    [
      "h",
      "and"
    ],
    [
      "w",
      "orld"
    ],
    [
      "bu",
      "ild"
    ],
    [
      "1",
      "4"
    ],
    [
      "all",
      "ow"
    ],
    [
      "19",
      "7"
    ],
    [
      "j",
      "o"
    ],
    [
      "lo",
      "sa"
    ],
    [
      "charac",
      "ter"
    ],
    [
      "follow",
      "ing"
    ],
    [
      "p",
      "ur"
    ],
    [
      "2",
      "5"
    ],
    [
      "includ",
      "ed"
    ],
    [
      "or",
      "gan"
    ],
    [
      "u",
      "c"
    ],
    [
      "c",
      "our"
    ],
    [
      "A",
      "m"
    ],
    [
      "ide",
      "o"
    ],
    [
      "av",
      "y"
    ],
    [
      "if",
      "ied"
    ],
    [
      "ro",
      "y"
    ],
    [
      "contin",
      "u"
    ],
    [
      "G",
      "en"
    ],
    [
      "Au",
      "gust"
    ],
    [
      "overn",
      "ment"
    ],
    [
      "Amer",
      "ican"
    ],
    [
      "at",
      "or"
    ],
    [
      "ain",
      "ed"
    ],
    [
      "j",
      "ust"
    ],
    [
      "act",
      "iv"
    ],
    [
      "re",
      "qu"
    ],
    [
      "s",
      "ite"
    ],
    [
      "at",
      "ter"
    ],
    [
      "n",
      "ame"
    ],
    [
      "a",
      "im"
    ],
    [
      "n",
      "ed"
    ],
    [
      "v",
      "es"
    ],
    [
      "un",
      "t"
    ],
    [
      "l",
      "ife"
    ],
    [
      "ical",
      "ly"
    ],
    [
      "f",
      "r"
    ],
    [
      "r",
      "un"
    ],
    [
      "re",
      "st"
    ],
    [
      "i",
      "er"
    ],
    [
      "sy",
      "n"
    ],
    [
      "h",
      "o"
    ],
    [
      "J",
      "une"
    ],
    [
      "hal",
      "f"
    ],
    [
      "p",
      "ass"
    ],
    [
      "pe",
      "ople"
    ],
    [
      "s",
      "chool"
    ],
    [
      "200",
      "6"
    ],
    [
      "um",
      "ent"
    ],
    [
      "K",
      "ing"
    ],
    [
      "And",
      "erson"
    ],
    [
      "rele",
      "ase"
    ],
    [
      "add",
      "ition"
    ],
    [
      "f",
      "ic"
    ],
    [
      "M",
      "ar"
    ],
    [
      "ain",
      "ing"
    ],
    [
      "em",
      "ber"
    ],
    [
      "R",
      "ock"
    ],
    [
      "c",
      "y"
    ],
    [
      "em",
      "pt"
    ],
    [
      "S",
      "ap"
    ],
    [
      "g",
      "ames"
    ],
    [
      "Th",
      "ere"
    ],
    [
      "l",
      "im"
    ],
    [
      "res",
      "p"
    ],
    [
      "v",
      "al"
    ],
    [
      "use",
      "um"
    ],
    [
      "St",
      "ates"
    ],
    [
      "th",
      "or"
    ],
    [
      "m",
      "ay"
    ],
    [
      "tr",
      "ad"
    ],
    [
      "M",
      "ark"
    ],
    [
      "ch",
      "ild"
    ],
    [
      "ro",
      "te"
    ],
    [
      "y",
      "s"
    ],
    [
      "De",
      "ce"
    ],
    [
      "pr",
      "of"
    ],
    [
      "U",
      "S"
    ],
    [
      "in",
      "cre"
    ],
    [
      "um",
      "b"
    ],
    [
      "n",
      "ow"
    ],
    [
      "re",
      "w"
    ],
    [
      "Dece",
      "mber"
    ],
    [
      "F",
      "ran"
    ],
    [
      "Sap",
      "rang"
    ],
    [
      "vi",
      "ous"
    ],
    [
      "ial",
      "ly"
    ],
    [
      "pos",
      "ed"
    ],
    [
      "po",
      "st"
    ],
    [
      "re",
      "view"
    ],
    [
      "W",
      "orld"
    ],
    [
      "at",
      "ure"
    ],
    [
      "ent",
      "ly"
    ],
    [
      "f",
      "ur"
    ],
    [
      "h",
      "ip"
    ],
    [
      "ev",
      "en"
    ],
    [
      "M",
      "e"
    ],
    [
      "en",
      "n"
    ],
    [
      "G",
      "e"
    ],
    [
      "A",
      "A"
    ],
    [
      "it",
      "ary"
    ],
    [
      "u",
      "ro"
    ],
    [
      "cont",
      "rol"
    ],
    [
      "av",
      "ing"
    ],
    [
      "th",
      "ose"
    ],
    [
      "The",
      "y"
    ],
    [
      "in",
      "k"
    ],
    [
      "em",
      "pl"
    ],
    [
      "with",
      "in"
    ],
    [
      "ate",
      "ly"
    ],
    [
      "a",
      "x"
    ],
    [
      "S",
      "outh"
    ],
    [
      "ab",
      "l"
    ],
    [
      "ag",
      "re"
    ],
    [
      "an",
      "other"
    ],
    [
      "S",
      "tr"
    ],
    [
      "ro",
      "ss"
    ],
    [
      "hum",
      "an"
    ],
    [
      "r",
      "ight"
    ],
    [
      "ad",
      "o"
    ],
    [
      "f",
      "ig"
    ],
    [
      "S",
      "o"
    ],
    [
      "ut",
      "ion"
    ],
    [
      "s",
      "im"
    ],
    [
      "i",
      "but"
    ],
    [
      "b",
      "le"
    ],
    [
      "Se",
      "pt"
    ],
    [
      "Sept",
      "ember"
    ],
    [
      "peri",
      "od"
    ],
    [
      "I",
      "s"
    ],
    [
      "pl",
      "an"
    ],
    [
      "re",
      "al"
    ],
    [
      "Ch",
      "ar"
    ],
    [
      "ar",
      "ound"
    ],
    [
      "b",
      "ased"
    ],
    [
      "Com",
      "m"
    ],
    [
      "t",
      "ro"
    ],
    [
      "mo",
      "ved"
    ],
    [
      "R",
      "o"
    ],
    [
      "il",
      "t"
    ],
    [
      "est",
      "abl"
    ],
    [
      "r",
      "um"
    ],
    [
      "col",
      "le"
    ],
    [
      "n",
      "ear"
    ],
    [
      "we",
      "ek"
    ],
    [
      "ar",
      "ly"
    ],
    [
      "gg",
      "est"
    ],
    [
      "n",
      "ational"
    ],
    [
      "re",
      "ak"
    ],
    [
      "R",
      "ou"
    ],
    [
      "th",
      "ird"
    ],
    [
      "pre",
      "vious"
    ],
    [
      "g",
      "reat"
    ],
    [
      "wh",
      "at"
    ],
    [
      "P",
      "ro"
    ],
    [
      "gen",
      "er"
    ],
    [
      "1",
      "6"
    ],
    [
      "for",
      "d"
    ],
    [
      "om",
      "en"
    ],
    [
      "i",
      "ety"
    ],
    [
      "2",
      "1"
    ],
    [
      "sk",
      "i"
    ],
    [
      "ot",
      "s"
    ],
    [
      "Rou",
      "te"
    ],
    [
      "s",
      "ol"
    ],
    [
      "for",
      "man"
    ],
    [
      "u",
      "ary"
    ],
    [
      "D",
      "uring"
    ],
    [
      "g",
      "et"
    ],
    [
      "ma",
      "jor"
    ],
    [
      "c",
      "ru"
    ],
    [
      "c",
      "up"
    ],
    [
      "publ",
      "ished"
    ],
    [
      "in",
      "flu"
    ],
    [
      "ant",
      "s"
    ],
    [
      "su",
      "ggest"
    ],
    [
      "Ar",
      "ch"
    ],
    [
      "L",
      "ond"
    ],
    [
      "Lond",
      "on"
    ],
    [
      "in",
      "a"
    ],
    [
      "gr",
      "af"
    ],
    [
      "alk",
      "y"
    ],
    [
      "ro",
      "le"
    ],
    [
      "b",
      "l"
    ],
    [
      "201",
      "0"
    ],
    [
      "s",
      "en"
    ],
    [
      "ach",
      "ed"
    ],
    [
      "ou",
      "se"
    ],
    [
      "v",
      "ol"
    ],
    [
      "produ",
      "ced"
    ],
    [
      "H",
      "is"
    ],
    [
      "s",
      "ince"
    ],
    [
      "w",
      "rote"
    ],
    [
      "of",
      "ten"
    ],
    [
      "ther",
      "n"
    ],
    [
      "d",
      "i"
    ],
    [
      "quad",
      "ron"
    ],
    [
      "ri",
      "a"
    ],
    [
      "201",
      "1"
    ],
    [
      "E",
      "uro"
    ],
    [
      "st",
      "ated"
    ],
    [
      "c",
      "or"
    ],
    [
      "fin",
      "al"
    ],
    [
      "ch",
      "art"
    ],
    [
      "pres",
      "s"
    ],
    [
      "Ind",
      "ian"
    ],
    [
      "c",
      "he"
    ],
    [
      "att",
      "empt"
    ],
    [
      "al",
      "y"
    ],
    [
      "in",
      "ch"
    ],
    [
      "J",
      "u"
    ],
    [
      "er",
      "o"
    ],
    [
      "ur",
      "us"
    ],
    [
      "differ",
      "ent"
    ],
    [
      "point",
      "s"
    ],
    [
      "Gen",
      "eral"
    ],
    [
      "m",
      "uch"
    ],
    [
      "w",
      "on"
    ],
    [
      "H",
      "owever"
    ],
    [
      "W",
      "e"
    ],
    [
      "B",
      "est"
    ],
    [
      "Mark",
      "graf"
    ],
    [
      "F",
      "urt"
    ],
    [
      "Furt",
      "ado"
    ],
    [
      "origin",
      "al"
    ],
    [
      "d",
      "en"
    ],
    [
      "m",
      "ake"
    ],
    [
      "ch",
      "an"
    ],
    [
      "inv",
      "ol"
    ],
    [
      "f",
      "ac"
    ],
    [
      "N",
      "e"
    ],
    [
      "ar",
      "r"
    ],
    [
      "or",
      "m"
    ],
    [
      "18",
      "6"
    ],
    [
      "J",
      "ack"
    ],
    [
      "fam",
      "ily"
    ],
    [
      "im",
      "es"
    ],
    [
      "19",
      "6"
    ],
    [
      "mer",
      "cial"
    ],
    [
      "lay",
      "er"
    ],
    [
      "d",
      "om"
    ],
    [
      "B",
      "r"
    ],
    [
      "pol",
      "it"
    ],
    [
      "Arch",
      "aeolog"
    ],
    [
      "Sh",
      "ol"
    ],
    [
      "Shol",
      "ay"
    ],
    [
      "record",
      "ed"
    ],
    [
      "al",
      "es"
    ],
    [
      "lo",
      "ck"
    ],
    [
      "t",
      "urn"
    ],
    [
      "d",
      "ist"
    ],
    [
      "O",
      "r"
    ],
    [
      "l",
      "ast"
    ],
    [
      "se",
      "qu"
    ],
    [
      "p",
      "ite"
    ],
    [
      "partic",
      "ular"
    ],
    [
      "2",
      "3"
    ],
    [
      "L",
      "ittle"
    ],
    [
      "and",
      "er"
    ],
    [
      "v",
      "ent"
    ],
    [
      "le",
      "t"
    ],
    [
      "be",
      "cause"
    ],
    [
      "be",
      "h"
    ],
    [
      "W",
      "est"
    ],
    [
      "mon",
      "th"
    ],
    [
      "ag",
      "es"
    ],
    [
      "go",
      "al"
    ],
    [
      "Euro",
      "pe"
    ],
    [
      "ant",
      "i"
    ],
    [
      "per",
      "forman"
    ],
    [
      "mem",
      "bers"
    ],
    [
      "d",
      "est"
    ],
    [
      "M",
      "usic"
    ],
    [
      "vis",
      "ion"
    ],
    [
      "in",
      "it"
    ],
    [
      "E",
      "x"
    ],
    [
      "p",
      "ut"
    ],
    [
      "pro",
      "v"
    ],
    [
      "not",
      "ed"
    ],
    [
      "ev",
      "ent"
    ],
    [
      "he",
      "ld"
    ],
    [
      "a",
      "el"
    ],
    [
      "se",
      "en"
    ],
    [
      "R",
      "oman"
    ],
    [
      "ir",
      "c"
    ],
    [
      "im",
      "port"
    ],
    [
      "A",
      "li"
    ],
    [
      "V",
      "alky"
    ],
    [
      "prom",
      "ot"
    ],
    [
      "U",
      "K"
    ],
    [
      "t",
      "it"
    ],
    [
      "pos",
      "s"
    ],
    [
      "ron",
      "t"
    ],
    [
      "le",
      "y"
    ],
    [
      "bu",
      "ilt"
    ],
    [
      "m",
      "en"
    ],
    [
      "au",
      "thor"
    ],
    [
      "ction",
      "s"
    ],
    [
      "be",
      "l"
    ],
    [
      "5",
      "0"
    ],
    [
      "cl",
      "aim"
    ],
    [
      "m",
      "i"
    ],
    [
      "D",
      "es"
    ],
    [
      "form",
      "er"
    ],
    [
      "ad",
      "em"
    ],
    [
      "pr",
      "im"
    ],
    [
      "ly",
      "ing"
    ],
    [
      "ri",
      "ed"
    ],
    [
      "fe",
      "ct"
    ],
    [
      "sh",
      "ort"
    ],
    [
      "ive",
      "ly"
    ],
    [
      "en",
      "ces"
    ],
    [
      "h",
      "old"
    ],
    [
      "em",
      "ent"
    ],
    [
      "2",
      "4"
    ],
    [
      "l",
      "ab"
    ],
    [
      "C",
      "ity"
    ],
    [
      "rel",
      "ig"
    ],
    [
      "C",
      "an"
    ],
    [
      "ull",
      "s"
    ],
    [
      "is",
      "ion"
    ],
    [
      "return",
      "ed"
    ],
    [
      "c",
      "us"
    ],
    [
      "st",
      "em"
    ],
    [
      "us",
      "ing"
    ],
    [
      "th",
      "ing"
    ],
    [
      "through",
      "out"
    ],
    [
      "b",
      "est"
    ],
    [
      "at",
      "on"
    ],
    [
      "cl",
      "ub"
    ],
    [
      "s",
      "it"
    ],
    [
      "dr",
      "aw"
    ],
    [
      "at",
      "ory"
    ],
    [
      "plac",
      "ed"
    ],
    [
      "g",
      "er"
    ],
    [
      "n",
      "er"
    ],
    [
      "giv",
      "en"
    ],
    [
      "P",
      "h"
    ],
    [
      "R",
      "ed"
    ],
    [
      "comm",
      "un"
    ],
    [
      "Jan",
      "uary"
    ],
    [
      "develo",
      "p"
    ],
    [
      "o",
      "to"
    ],
    [
      "p",
      "or"
    ],
    [
      "end",
      "ing"
    ],
    [
      "ver",
      "y"
    ],
    [
      "Ar",
      "my"
    ],
    [
      "f",
      "em"
    ],
    [
      "unt",
      "il"
    ],
    [
      "du",
      "e"
    ],
    [
      "consid",
      "ered"
    ],
    [
      "st",
      "y"
    ],
    [
      "M",
      "in"
    ],
    [
      "v",
      "an"
    ],
    [
      "b",
      "as"
    ],
    [
      "n",
      "orth"
    ],
    [
      "k",
      "m"
    ],
    [
      "w",
      "ater"
    ],
    [
      "P",
      "r"
    ],
    [
      "l",
      "ate"
    ],
    [
      "ay",
      "s"
    ],
    [
      "200",
      "8"
    ],
    [
      "scor",
      "ed"
    ],
    [
      "200",
      "9"
    ],
    [
      "Le",
      "ague"
    ],
    [
      "ev",
      "ed"
    ],
    [
      "M",
      "ad"
    ],
    [
      "le",
      "ar"
    ],
    [
      "st",
      "at"
    ],
    [
      "b",
      "ru"
    ],
    [
      "201",
      "2"
    ],
    [
      "continu",
      "ed"
    ],
    [
      "song",
      "s"
    ],
    [
      "constru",
      "ction"
    ],
    [
      "f",
      "oot"
    ],
    [
      "ste",
      "ad"
    ],
    [
      "sign",
      "ed"
    ],
    [
      "B",
      "o"
    ],
    [
      "G",
      "u"
    ],
    [
      "are",
      "a"
    ],
    [
      "am",
      "b"
    ],
    [
      "ap",
      "point"
    ],
    [
      "Brit",
      "ain"
    ],
    [
      "p",
      "il"
    ],
    [
      "Valky",
      "ria"
    ],
    [
      "t",
      "ake"
    ],
    [
      "play",
      "er"
    ],
    [
      "w",
      "ill"
    ],
    [
      "W",
      "ith"
    ],
    [
      "s",
      "old"
    ],
    [
      "c",
      "ity"
    ],
    [
      "f",
      "ire"
    ],
    [
      "um",
      "ents"
    ],
    [
      "Fe",
      "bru"
    ],
    [
      "Febru",
      "ary"
    ],
    [
      "M",
      "arch"
    ],
    [
      "e",
      "qu"
    ],
    [
      "fur",
      "ther"
    ],
    [
      "L",
      "o"
    ],
    [
      "f",
      "ather"
    ],
    [
      "ro",
      "ad"
    ],
    [
      "av",
      "es"
    ],
    [
      "ul",
      "f"
    ],
    [
      "com",
      "mercial"
    ],
    [
      "de",
      "f"
    ],
    [
      "c",
      "irc"
    ],
    [
      "a",
      "er"
    ],
    [
      "E",
      "aton"
    ],
    [
      "B",
      "ulls"
    ],
    [
      "II",
      "I"
    ],
    [
      "mil",
      "itary"
    ],
    [
      "oper",
      "ations"
    ],
    [
      "sy",
      "stem"
    ],
    [
      "f",
      "el"
    ],
    [
      "pop",
      "ular"
    ],
    [
      "p",
      "le"
    ],
    [
      "c",
      "as"
    ],
    [
      "st",
      "ri"
    ],
    [
      "p",
      "ri"
    ],
    [
      "se",
      "mb"
    ],
    [
      "var",
      "ious"
    ],
    [
      "s",
      "outh"
    ],
    [
      "m",
      "id"
    ],
    [
      "de",
      "ath"
    ],
    [
      "end",
      "s"
    ],
    [
      "Al",
      "though"
    ],
    [
      "M",
      "c"
    ],
    [
      "F",
      "in"
    ],
    [
      "ivers",
      "ity"
    ],
    [
      "ic",
      "a"
    ],
    [
      "ro",
      "ck"
    ],
    [
      "in",
      "du"
    ],
    [
      "div",
      "ine"
    ],
    [
      "s",
      "ound"
    ],
    [
      "fer",
      "red"
    ],
    [
      "loc",
      "al"
    ],
    [
      "v",
      "ing"
    ],
    [
      "n",
      "ext"
    ],
    [
      "gr",
      "ap"
    ],
    [
      "produ",
      "ction"
    ],
    [
      "P",
      "e"
    ],
    [
      "m",
      "s"
    ],
    [
      "te",
      "le"
    ],
    [
      "an",
      "ces"
    ],
    [
      "s",
      "ent"
    ],
    [
      "prof",
      "ess"
    ],
    [
      "ch",
      "ed"
    ],
    [
      "contr",
      "act"
    ],
    [
      "wo",
      "od"
    ],
    [
      "an",
      "e"
    ],
    [
      "form",
      "ation"
    ],
    [
      "So",
      "vi"
    ],
    [
      "p",
      "en"
    ],
    [
      "p",
      "an"
    ],
    [
      "cre",
      "t"
    ],
    [
      "201",
      "4"
    ],
    [
      "i",
      "qu"
    ],
    [
      "or",
      "ed"
    ],
    [
      "aw",
      "ard"
    ],
    [
      "ar",
      "ed"
    ],
    [
      "him",
      "self"
    ],
    [
      "af",
      "f"
    ],
    [
      "se",
      "ven"
    ],
    [
      "Bl",
      "ue"
    ],
    [
      "se",
      "arch"
    ],
    [
      "g",
      "overnment"
    ],
    [
      "report",
      "ed"
    ],
    [
      "L",
      "ong"
    ],
    [
      "f",
      "un"
    ],
    [
      "N",
      "ational"
    ],
    [
      "hist",
      "or"
    ],
    [
      "dep",
      "ict"
    ],
    [
      "P",
      "ar"
    ],
    [
      "m",
      "atch"
    ],
    [
      "w",
      "or"
    ],
    [
      "G",
      "r"
    ],
    [
      "v",
      "oc"
    ],
    [
      "n",
      "y"
    ],
    [
      "t",
      "ak"
    ],
    [
      "success",
      "ful"
    ],
    [
      "ark",
      "er"
    ],
    [
      "m",
      "od"
    ],
    [
      "u",
      "als"
    ],
    [
      "Bl",
      "ack"
    ],
    [
      "ct",
      "or"
    ],
    [
      "0",
      "s"
    ],
    [
      "us",
      "h"
    ],
    [
      "at",
      "s"
    ],
    [
      "b",
      "ase"
    ],
    [
      "a",
      "ver"
    ],
    [
      "t",
      "est"
    ],
    [
      "King",
      "dom"
    ],
    [
      "e",
      "as"
    ],
    [
      "Cl",
      "ark"
    ],
    [
      "gro",
      "w"
    ],
    [
      "No",
      "."
    ],
    [
      "dest",
      "roy"
    ],
    [
      "ex",
      "pl"
    ],
    [
      "mem",
      "ber"
    ],
    [
      "h",
      "owever"
    ],
    [
      "iv",
      "es"
    ],
    [
      "crit",
      "ic"
    ],
    [
      "is",
      "ing"
    ],
    [
      "u",
      "de"
    ],
    [
      "build",
      "ing"
    ],
    [
      "is",
      "on"
    ],
    [
      "lab",
      "or"
    ],
    [
      "i",
      "ent"
    ],
    [
      "am",
      "ong"
    ],
    [
      "gun",
      "s"
    ],
    [
      "w",
      "omen"
    ],
    [
      "n",
      "ess"
    ],
    [
      "u",
      "es"
    ],
    [
      "bo",
      "ard"
    ],
    [
      "de",
      "al"
    ],
    [
      "b",
      "reak"
    ],
    [
      "ar",
      "ian"
    ],
    [
      "S",
      "quadron"
    ],
    [
      "film",
      "s"
    ],
    [
      "C",
      "ull"
    ],
    [
      "met",
      "al"
    ],
    [
      "under",
      "ground"
    ],
    [
      "develo",
      "ped"
    ],
    [
      "for",
      "ces"
    ],
    [
      "se",
      "le"
    ],
    [
      "with",
      "out"
    ],
    [
      "ne",
      "ver"
    ],
    [
      "g",
      "in"
    ],
    [
      "low",
      "er"
    ],
    [
      "p",
      "at"
    ],
    [
      "su",
      "re"
    ],
    [
      "en",
      "e"
    ],
    [
      "f",
      "ront"
    ],
    [
      "sh",
      "ould"
    ],
    [
      "ir",
      "on"
    ],
    [
      "o",
      "v"
    ],
    [
      "Col",
      "umb"
    ],
    [
      "B",
      "ar"
    ],
    [
      "ic",
      "es"
    ],
    [
      "Th",
      "ese"
    ],
    [
      "H",
      "L"
    ],
    [
      "at",
      "ic"
    ],
    [
      "m",
      "ix"
    ],
    [
      "F",
      "ern"
    ],
    [
      "Fern",
      "and"
    ],
    [
      "Aw",
      "ards"
    ],
    [
      "trad",
      "ition"
    ],
    [
      "stit",
      "ute"
    ],
    [
      "C",
      "old"
    ],
    [
      "ic",
      "les"
    ],
    [
      "M",
      "ed"
    ],
    [
      "w",
      "ent"
    ],
    [
      "es",
      "tern"
    ],
    [
      "ul",
      "ation"
    ],
    [
      "tr",
      "ibut"
    ],
    [
      "tim",
      "es"
    ],
    [
      "it",
      "al"
    ],
    [
      "bod",
      "y"
    ],
    [
      "A",
      "S"
    ],
    [
      "il",
      "ar"
    ],
    [
      "l",
      "ive"
    ],
    [
      "ru",
      "it"
    ],
    [
      "ke",
      "y"
    ],
    [
      "iv",
      "il"
    ],
    [
      "coun",
      "try"
    ],
    [
      "H",
      "er"
    ],
    [
      "'",
      "t"
    ],
    [
      "E",
      "arly"
    ],
    [
      "h",
      "our"
    ],
    [
      "M",
      "ich"
    ],
    [
      "1",
      "00"
    ],
    [
      "iv",
      "al"
    ],
    [
      "Ju",
      "ly"
    ],
    [
      "R",
      "oy"
    ],
    [
      "e",
      "z"
    ],
    [
      "excav",
      "ation"
    ],
    [
      "Clark",
      "son"
    ],
    [
      "com",
      "mon"
    ],
    [
      "h",
      "aving"
    ],
    [
      "att",
      "ack"
    ],
    [
      "way",
      "s"
    ],
    [
      "be",
      "come"
    ],
    [
      "S",
      "c"
    ],
    [
      "2",
      "2"
    ],
    [
      "cons",
      "ist"
    ],
    [
      "B",
      "y"
    ],
    [
      "p",
      "air"
    ],
    [
      "T",
      "r"
    ],
    [
      "cent",
      "ury"
    ],
    [
      "it",
      "er"
    ],
    [
      "G",
      "o"
    ],
    [
      "iz",
      "e"
    ],
    [
      "Ph",
      "il"
    ],
    [
      "scor",
      "ing"
    ],
    [
      "de",
      "but"
    ],
    [
      "port",
      "s"
    ],
    [
      "Un",
      "iversity"
    ],
    [
      "Ac",
      "adem"
    ],
    [
      "ant",
      "a"
    ],
    [
      "com",
      "ed"
    ],
    [
      "Cull",
      "en"
    ],
    [
      "J",
      "ew"
    ],
    [
      "Pol",
      "and"
    ],
    [
      "ith",
      "ic"
    ],
    [
      "it",
      "ted"
    ],
    [
      "m",
      "aking"
    ],
    [
      "tr",
      "a"
    ],
    [
      "iv",
      "id"
    ],
    [
      "M",
      "a"
    ],
    [
      "m",
      "ater"
    ],
    [
      "st",
      "ill"
    ],
    [
      "at",
      "a"
    ],
    [
      "ent",
      "er"
    ],
    [
      "pl",
      "ann"
    ],
    [
      "4",
      "0"
    ],
    [
      "er",
      "y"
    ],
    [
      "w",
      "ide"
    ],
    [
      "beh",
      "ind"
    ],
    [
      "e",
      "ast"
    ],
    [
      "activ",
      "ities"
    ],
    [
      "ab",
      "o"
    ],
    [
      "S",
      "te"
    ],
    [
      "f",
      "lo"
    ],
    [
      "de",
      "v"
    ],
    [
      "h",
      "ib"
    ],
    [
      "oc",
      "cup"
    ],
    [
      "B",
      "arker"
    ],
    [
      "comp",
      "et"
    ],
    [
      "Aust",
      "ral"
    ],
    [
      "om",
      "et"
    ],
    [
      "se",
      "x"
    ],
    [
      "s",
      "ou"
    ],
    [
      "y",
      "ing"
    ],
    [
      "h",
      "ost"
    ],
    [
      "ren",
      "ch"
    ],
    [
      "D",
      "ev"
    ],
    [
      "fle",
      "et"
    ],
    [
      "An",
      "tim"
    ],
    [
      "st",
      "ory"
    ],
    [
      "direct",
      "or"
    ],
    [
      "spec",
      "ial"
    ],
    [
      "y",
      "oung"
    ],
    [
      "ev",
      "ents"
    ],
    [
      "k",
      "ill"
    ],
    [
      "i",
      "k"
    ],
    [
      "iv",
      "ing"
    ],
    [
      "en",
      "ced"
    ],
    [
      "h",
      "am"
    ],
    [
      "sh",
      "ot"
    ],
    [
      "F",
      "I"
    ],
    [
      "c",
      "ou"
    ],
    [
      "av",
      "i"
    ],
    [
      "import",
      "ant"
    ],
    [
      "ound",
      "s"
    ],
    [
      "stru",
      "ck"
    ],
    [
      "F",
      "rench"
    ],
    [
      "reg",
      "ular"
    ],
    [
      "cru",
      "is"
    ],
    [
      "Mad",
      "ero"
    ],
    [
      "ask",
      "et"
    ],
    [
      "v",
      "ideo"
    ],
    [
      "E",
      "m"
    ],
    [
      "ex",
      "p"
    ],
    [
      "ind",
      "ivid"
    ],
    [
      "c",
      "amp"
    ],
    [
      "inter",
      "est"
    ],
    [
      "x",
      "im"
    ],
    [
      "writ",
      "ten"
    ],
    [
      "mater",
      "ial"
    ],
    [
      "n",
      "al"
    ],
    [
      "ist",
      "ic"
    ],
    [
      "c",
      "al"
    ],
    [
      "day",
      "s"
    ],
    [
      "sign",
      "ific"
    ],
    [
      "l",
      "l"
    ],
    [
      "soci",
      "ation"
    ],
    [
      "f",
      "und"
    ],
    [
      "k",
      "en"
    ],
    [
      "clo",
      "se"
    ],
    [
      "Jack",
      "ets"
    ],
    [
      "C",
      "o"
    ],
    [
      "t",
      "al"
    ],
    [
      "le",
      "ague"
    ],
    [
      "re",
      "ached"
    ],
    [
      "beli",
      "eved"
    ],
    [
      "m",
      "is"
    ],
    [
      "Mich",
      "ael"
    ],
    [
      "Un",
      "der"
    ],
    [
      "con",
      "cer"
    ],
    [
      "y",
      "n"
    ],
    [
      "ar",
      "ies"
    ],
    [
      "od",
      "rom"
    ],
    [
      "dis",
      "cover"
    ],
    [
      "cav",
      "es"
    ],
    [
      "Al",
      "losa"
    ],
    [
      "Allosa",
      "urus"
    ],
    [
      "Ch",
      "ron"
    ],
    [
      "batt",
      "le"
    ],
    [
      "mo",
      "ve"
    ],
    [
      "ith",
      "er"
    ],
    [
      "ex",
      "ist"
    ],
    [
      "for",
      "ce"
    ],
    [
      "C",
      "A"
    ],
    [
      "lead",
      "ing"
    ],
    [
      "2",
      "9"
    ],
    [
      "ser",
      "ved"
    ],
    [
      "in",
      "ation"
    ],
    [
      "f",
      "act"
    ],
    [
      "pol",
      "ice"
    ],
    [
      "g",
      "re"
    ],
    [
      "f",
      "ew"
    ],
    [
      "og",
      "rap"
    ],
    [
      "ot",
      "t"
    ],
    [
      "iv",
      "ate"
    ],
    [
      "clo",
      "sed"
    ],
    [
      "appear",
      "ed"
    ],
    [
      "S",
      "er"
    ],
    [
      "appoint",
      "ed"
    ],
    [
      "writ",
      "ing"
    ],
    [
      "vers",
      "ion"
    ],
    [
      "Fernand",
      "ez"
    ],
    [
      "og",
      "ue"
    ],
    [
      "in",
      "ess"
    ],
    [
      "ar",
      "g"
    ],
    [
      "ian",
      "s"
    ],
    [
      "g",
      "al"
    ],
    [
      "Cold",
      "rum"
    ],
    [
      "archaeolog",
      "ical"
    ],
    [
      "to",
      "mb"
    ],
    [
      "G",
      "ame"
    ],
    [
      "f",
      "ree"
    ],
    [
      "for",
      "t"
    ],
    [
      "id",
      "ence"
    ],
    [
      "su",
      "f"
    ],
    [
      "g",
      "ave"
    ],
    [
      "b",
      "on"
    ],
    [
      "Ac",
      "cording"
    ],
    [
      "ition",
      "s"
    ],
    [
      "W",
      "ill"
    ],
    [
      "T",
      "wo"
    ],
    [
      "loc",
      "ated"
    ],
    [
      "J",
      "ames"
    ],
    [
      "P",
      "er"
    ],
    [
      "str",
      "ong"
    ],
    [
      "remain",
      "ed"
    ],
    [
      "S",
      "oc"
    ],
    [
      "f",
      "ri"
    ],
    [
      "ent",
      "ion"
    ],
    [
      "ac",
      "ross"
    ],
    [
      "sh",
      "r"
    ],
    [
      "tr",
      "aining"
    ],
    [
      "w",
      "ins"
    ],
    [
      "fer",
      "ence"
    ],
    [
      "ind",
      "s"
    ],
    [
      "m",
      "m"
    ],
    [
      "Roy",
      "al"
    ],
    [
      "performan",
      "ce"
    ],
    [
      "rap",
      "ped"
    ],
    [
      "ic",
      "o"
    ],
    [
      "reg",
      "ime"
    ],
    [
      "Y",
      "oung"
    ],
    [
      "Sovi",
      "et"
    ],
    [
      "Antim",
      "ony"
    ],
    [
      "lim",
      "ited"
    ],
    [
      "s",
      "w"
    ],
    [
      "fem",
      "ale"
    ],
    [
      "though",
      "t"
    ],
    [
      "issu",
      "e"
    ],
    [
      "no",
      "vel"
    ],
    [
      "O",
      "f"
    ],
    [
      "start",
      "ed"
    ],
    [
      "ab",
      "ly"
    ],
    [
      "S",
      "an"
    ],
    [
      "l",
      "er"
    ],
    [
      "is",
      "ter"
    ],
    [
      "f",
      "av"
    ],
    [
      "ro",
      "p"
    ],
    [
      "ion",
      "ed"
    ],
    [
      "ed",
      "uc"
    ],
    [
      "au",
      "gh"
    ],
    [
      "ol",
      "id"
    ],
    [
      "am",
      "ent"
    ],
    [
      "Is",
      "land"
    ],
    [
      "le",
      "ast"
    ],
    [
      "Columb",
      "us"
    ],
    [
      "M",
      "on"
    ],
    [
      "co",
      "in"
    ],
    [
      "ef",
      "fect"
    ],
    [
      "jo",
      "ined"
    ],
    [
      "dam",
      "age"
    ],
    [
      "vi",
      "ol"
    ],
    [
      "Y",
      "ear"
    ],
    [
      "r",
      "ain"
    ],
    [
      "y",
      "ou"
    ],
    [
      "T",
      "e"
    ],
    [
      "de",
      "cl"
    ],
    [
      "id",
      "ing"
    ],
    [
      "album",
      "s"
    ],
    [
      "co",
      "ins"
    ],
    [
      "ch",
      "am"
    ],
    [
      "asket",
      "ball"
    ],
    [
      "In",
      "stitute"
    ],
    [
      "Chron",
      "icles"
    ],
    [
      "B",
      "att"
    ],
    [
      "av",
      "en"
    ],
    [
      "to",
      "m"
    ],
    [
      "ant",
      "ed"
    ],
    [
      "P",
      "o"
    ],
    [
      "c",
      "a"
    ],
    [
      "it",
      "ch"
    ],
    [
      "com",
      "b"
    ],
    [
      "dec",
      "ided"
    ],
    [
      "form",
      "s"
    ],
    [
      "p",
      "ie"
    ],
    [
      "..",
      "."
    ],
    [
      "re",
      "ve"
    ],
    [
      "com",
      "ing"
    ],
    [
      "w",
      "ard"
    ],
    [
      "S",
      "ome"
    ],
    [
      "oth",
      "ers"
    ],
    [
      "m",
      "useum"
    ],
    [
      "ber",
      "t"
    ],
    [
      "w",
      "all"
    ],
    [
      "f",
      "ed"
    ],
    [
      "n",
      "or"
    ],
    [
      "2",
      "6"
    ],
    [
      "i",
      "ver"
    ],
    [
      "h",
      "op"
    ],
    [
      "per",
      "formed"
    ],
    [
      "w",
      "ife"
    ],
    [
      "child",
      "ren"
    ],
    [
      "e",
      "ight"
    ],
    [
      "fe",
      "et"
    ],
    [
      "St",
      "ar"
    ],
    [
      "Academ",
      "y"
    ],
    [
      "ac",
      "cept"
    ],
    [
      "B",
      "ill"
    ],
    [
      "sh",
      "own"
    ],
    [
      "ever",
      "y"
    ],
    [
      "Car",
      "ol"
    ],
    [
      "rel",
      "ation"
    ],
    [
      "F",
      "ilm"
    ],
    [
      "fl",
      "ight"
    ],
    [
      "f",
      "lying"
    ],
    [
      "mon",
      "ument"
    ],
    [
      "W",
      "rapped"
    ],
    [
      "archaeolog",
      "y"
    ],
    [
      "al",
      "ed"
    ],
    [
      "U",
      "p"
    ],
    [
      "ign",
      "ed"
    ],
    [
      "ab",
      "ility"
    ],
    [
      "f",
      "ace"
    ],
    [
      "f",
      "ull"
    ],
    [
      "cre",
      "ated"
    ],
    [
      "ne",
      "ed"
    ],
    [
      "Wh",
      "en"
    ],
    [
      "sim",
      "ilar"
    ],
    [
      "ar",
      "a"
    ],
    [
      "ough",
      "t"
    ],
    [
      "E",
      "d"
    ],
    [
      "r",
      "ing"
    ],
    [
      "stand",
      "ing"
    ],
    [
      "sty",
      "le"
    ],
    [
      "b",
      "al"
    ],
    [
      "dam",
      "aged"
    ],
    [
      "establ",
      "ished"
    ],
    [
      "offic",
      "ers"
    ],
    [
      "d",
      "on"
    ],
    [
      "ap",
      "er"
    ],
    [
      "Un",
      "ion"
    ],
    [
      "b",
      "orn"
    ],
    [
      "g",
      "ed"
    ],
    [
      "Soc",
      "iety"
    ],
    [
      "ve",
      "y"
    ],
    [
      "og",
      "n"
    ],
    [
      "c",
      "ave"
    ],
    [
      "N",
      "HL"
    ],
    [
      "Can",
      "ad"
    ],
    [
      "4",
      "4"
    ],
    [
      "med",
      "i"
    ],
    [
      "follow",
      "ed"
    ],
    [
      "ap",
      "pl"
    ],
    [
      "re",
      "action"
    ],
    [
      "ran",
      "ia"
    ],
    [
      "Jew",
      "ish"
    ],
    [
      "Wh",
      "ile"
    ],
    [
      "O",
      "ne"
    ],
    [
      "b",
      "en"
    ],
    [
      "grap",
      "h"
    ],
    [
      "t",
      "ail"
    ],
    [
      "s",
      "ave"
    ],
    [
      "it",
      "ing"
    ],
    [
      "en",
      "ed"
    ],
    [
      "tele",
      "vision"
    ],
    [
      "Ar",
      "k"
    ],
    [
      "cent",
      "ral"
    ],
    [
      "st",
      "one"
    ],
    [
      "in",
      "stead"
    ],
    [
      "2",
      "8"
    ],
    [
      "con",
      "ne"
    ],
    [
      "b",
      "ur"
    ],
    [
      "F",
      "air"
    ],
    [
      "f",
      "if"
    ],
    [
      "le",
      "vel"
    ],
    [
      "ch",
      "ol"
    ],
    [
      "stit",
      "ut"
    ],
    [
      "ph",
      "oto"
    ],
    [
      "r",
      "ad"
    ],
    [
      "rec",
      "ogn"
    ],
    [
      "ap",
      "e"
    ],
    [
      "play",
      "off"
    ],
    [
      "B",
      "C"
    ],
    [
      "remain",
      "s"
    ],
    [
      "ay",
      "ing"
    ],
    [
      "n",
      "omin"
    ],
    [
      "to",
      "ur"
    ],
    [
      "s",
      "aw"
    ],
    [
      "ear",
      "th"
    ],
    [
      "app",
      "ing"
    ],
    [
      "f",
      "ruit"
    ],
    [
      "aer",
      "odrom"
    ],
    [
      "develop",
      "ment"
    ],
    [
      "play",
      "ers"
    ],
    [
      "charac",
      "ters"
    ],
    [
      "t",
      "emp"
    ],
    [
      "D",
      "irect"
    ],
    [
      "op",
      "s"
    ],
    [
      "ch",
      "ang"
    ],
    [
      "i",
      "ers"
    ],
    [
      "u",
      "k"
    ],
    [
      "al",
      "ity"
    ],
    [
      "M",
      "ag"
    ],
    [
      "in",
      "sp"
    ],
    [
      "go",
      "als"
    ],
    [
      "S",
      "m"
    ],
    [
      "or",
      "es"
    ],
    [
      "P",
      "res"
    ],
    [
      "c",
      "ing"
    ],
    [
      "c",
      "ase"
    ],
    [
      "S",
      "ur"
    ],
    [
      "school",
      "s"
    ],
    [
      "ch",
      "n"
    ],
    [
      "c",
      "m"
    ],
    [
      "est",
      "im"
    ],
    [
      "s",
      "l"
    ],
    [
      "T",
      "im"
    ],
    [
      "ran",
      "ge"
    ],
    [
      "min",
      "ute"
    ],
    [
      "li",
      "er"
    ],
    [
      "polit",
      "ical"
    ],
    [
      "At",
      "l"
    ],
    [
      "b",
      "lock"
    ],
    [
      "fr",
      "ag"
    ],
    [
      "Th",
      "ak"
    ],
    [
      "int",
      "ro"
    ],
    [
      "d",
      "ess"
    ],
    [
      "fig",
      "ure"
    ],
    [
      "ny",
      "i"
    ],
    [
      "U",
      "rania"
    ],
    [
      "ab",
      "bar"
    ],
    [
      "ol",
      "ithic"
    ],
    [
      "archaeolog",
      "ist"
    ],
    [
      "or",
      "ies"
    ],
    [
      "p",
      "ers"
    ],
    [
      "ial",
      "s"
    ],
    [
      "En",
      "g"
    ],
    [
      "t",
      "re"
    ],
    [
      "ran",
      "k"
    ],
    [
      "to",
      "o"
    ],
    [
      "p",
      "ot"
    ],
    [
      "gen",
      "eral"
    ],
    [
      "incl",
      "ude"
    ],
    [
      "suf",
      "fer"
    ],
    [
      "h",
      "ow"
    ],
    [
      "f",
      "oc"
    ],
    [
      "c",
      "ast"
    ],
    [
      "S",
      "."
    ],
    [
      "ars",
      "en"
    ],
    [
      "part",
      "ment"
    ],
    [
      "tak",
      "en"
    ],
    [
      "spe",
      "ct"
    ],
    [
      "chan",
      "ge"
    ],
    [
      "N",
      "avy"
    ],
    [
      "p",
      "ain"
    ],
    [
      "8",
      "0"
    ],
    [
      "w",
      "ord"
    ],
    [
      "signific",
      "ant"
    ],
    [
      "S",
      "chool"
    ],
    [
      "G",
      "ir"
    ],
    [
      "200",
      "5"
    ],
    [
      "pt",
      "ion"
    ],
    [
      "f",
      "ail"
    ],
    [
      "om",
      "b"
    ],
    [
      "as",
      "tr"
    ],
    [
      "200",
      "3"
    ],
    [
      "f",
      "all"
    ],
    [
      "er",
      "a"
    ],
    [
      "sub",
      "sequ"
    ],
    [
      "st",
      "orm"
    ],
    [
      "D",
      "av"
    ],
    [
      "201",
      "5"
    ],
    [
      "as",
      "ing"
    ],
    [
      "bod",
      "ies"
    ],
    [
      "com",
      "pl"
    ],
    [
      "le",
      "ct"
    ],
    [
      "Amer",
      "ica"
    ],
    [
      "ol",
      "f"
    ],
    [
      "V",
      "ideo"
    ],
    [
      "Fin",
      "als"
    ],
    [
      "et",
      "ric"
    ],
    [
      "gr",
      "ad"
    ],
    [
      "st",
      "er"
    ],
    [
      "h",
      "ouse"
    ],
    [
      "lo",
      "ss"
    ],
    [
      "ch",
      "es"
    ],
    [
      "c",
      "op"
    ],
    [
      "s",
      "um"
    ],
    [
      "am",
      "a"
    ],
    [
      "M",
      "useum"
    ],
    [
      "tow",
      "n"
    ],
    [
      "b",
      "rough"
    ],
    [
      "id",
      "ge"
    ],
    [
      "empl",
      "oy"
    ],
    [
      "ot",
      "ed"
    ],
    [
      "profess",
      "ional"
    ],
    [
      "l",
      "ittle"
    ],
    [
      "con",
      "du"
    ],
    [
      "relig",
      "ious"
    ],
    [
      "ic",
      "ated"
    ],
    [
      "olid",
      "ay"
    ],
    [
      "m",
      "oun"
    ],
    [
      "M",
      "or"
    ],
    [
      "reg",
      "ion"
    ],
    [
      "ear",
      "lier"
    ],
    [
      "iz",
      "ation"
    ],
    [
      "cr",
      "ed"
    ],
    [
      "cur",
      "ren"
    ],
    [
      "s",
      "il"
    ],
    [
      "a",
      "ud"
    ],
    [
      "prim",
      "ary"
    ],
    [
      "n",
      "ight"
    ],
    [
      "t",
      "or"
    ],
    [
      "comed",
      "y"
    ],
    [
      "batt",
      "les"
    ],
    [
      "oper",
      "ation"
    ],
    [
      "sk",
      "y"
    ],
    [
      "200",
      "4"
    ],
    [
      "sub",
      "mar"
    ],
    [
      "hy",
      "g"
    ],
    [
      "hyg",
      "rom"
    ],
    [
      "P",
      "ort"
    ],
    [
      "m",
      "ult"
    ],
    [
      "min",
      "or"
    ],
    [
      "ty",
      "p"
    ],
    [
      "l",
      "ot"
    ],
    [
      "C",
      "ro"
    ],
    [
      "re",
      "f"
    ],
    [
      "up",
      "on"
    ],
    [
      "work",
      "ed"
    ],
    [
      "fel",
      "t"
    ],
    [
      "2",
      "7"
    ],
    [
      "writ",
      "er"
    ],
    [
      "S",
      "N"
    ],
    [
      "R",
      "ich"
    ],
    [
      "ann",
      "oun"
    ],
    [
      "in",
      "j"
    ],
    [
      "poss",
      "ible"
    ],
    [
      "act",
      "ions"
    ],
    [
      "St",
      "ate"
    ],
    [
      "lo",
      "st"
    ],
    [
      "ie",
      "f"
    ],
    [
      "st",
      "ation"
    ],
    [
      "ing",
      "ton"
    ],
    [
      "a",
      "ut"
    ],
    [
      "mark",
      "ed"
    ],
    [
      "r",
      "ican"
    ],
    [
      "Austral",
      "ia"
    ],
    [
      "at",
      "in"
    ],
    [
      "i",
      "am"
    ],
    [
      "tr",
      "ade"
    ],
    [
      "R",
      "us"
    ],
    [
      "record",
      "ing"
    ],
    [
      "b",
      "i"
    ],
    [
      "P",
      "a"
    ],
    [
      "Bill",
      "board"
    ],
    [
      "de",
      "mon"
    ],
    [
      "ens",
      "ive"
    ],
    [
      "t",
      "reat"
    ],
    [
      "pro",
      "p"
    ],
    [
      "cult",
      "ural"
    ],
    [
      "at",
      "i"
    ],
    [
      "Dev",
      "in"
    ],
    [
      "ag",
      "ogue"
    ],
    [
      "FI",
      "T"
    ],
    [
      "Lo",
      "ose"
    ],
    [
      "hygrom",
      "etric"
    ],
    [
      "Batt",
      "le"
    ],
    [
      "per",
      "form"
    ],
    [
      "it",
      "ive"
    ],
    [
      "an",
      "im"
    ],
    [
      "fic",
      "ult"
    ],
    [
      "e",
      "ither"
    ],
    [
      "hel",
      "p"
    ],
    [
      "il",
      "ities"
    ],
    [
      "n",
      "ames"
    ],
    [
      "Re",
      "g"
    ],
    [
      "work",
      "s"
    ],
    [
      "cer",
      "tain"
    ],
    [
      "pro",
      "te"
    ],
    [
      "ev",
      "idence"
    ],
    [
      "invol",
      "ved"
    ],
    [
      "des",
      "pite"
    ],
    [
      "our",
      "nal"
    ],
    [
      "w",
      "est"
    ],
    [
      "particular",
      "ly"
    ],
    [
      "m",
      "or"
    ],
    [
      "B",
      "u"
    ],
    [
      "comm",
      "iss"
    ],
    [
      "t",
      "ic"
    ],
    [
      "spec",
      "im"
    ],
    [
      "m",
      "itted"
    ],
    [
      "pro",
      "cess"
    ],
    [
      "M",
      "ost"
    ],
    [
      "av",
      "al"
    ],
    [
      "pro",
      "b"
    ],
    [
      "brough",
      "t"
    ],
    [
      "abo",
      "ve"
    ],
    [
      "V",
      "e"
    ],
    [
      "m",
      "ag"
    ],
    [
      "f",
      "re"
    ],
    [
      "mo",
      "ther"
    ],
    [
      "Black",
      "ie"
    ],
    [
      "olog",
      "y"
    ],
    [
      "Gir",
      "ls"
    ],
    [
      "row",
      "n"
    ],
    [
      "to",
      "ge"
    ],
    [
      "toge",
      "ther"
    ],
    [
      "allow",
      "ing"
    ],
    [
      "S",
      "u"
    ],
    [
      "s",
      "aves"
    ],
    [
      "ish",
      "ing"
    ],
    [
      "suggest",
      "ed"
    ],
    [
      "y",
      "l"
    ],
    [
      "G",
      "ro"
    ],
    [
      "d",
      "ate"
    ],
    [
      "god",
      "dess"
    ],
    [
      "im",
      "age"
    ],
    [
      "S",
      "layer"
    ],
    [
      "trans",
      "port"
    ],
    [
      "s",
      "ulf"
    ],
    [
      "Ger",
      "many"
    ],
    [
      "v",
      "ati"
    ],
    [
      "Str",
      "apping"
    ],
    [
      "G",
      "abbar"
    ],
    [
      "ans",
      "field"
    ],
    [
      "hygrometric",
      "us"
    ],
    [
      "out",
      "side"
    ],
    [
      "feat",
      "ures"
    ],
    [
      "R",
      "a"
    ],
    [
      "ak",
      "es"
    ],
    [
      "l",
      "in"
    ],
    [
      "appro",
      "ach"
    ],
    [
      "dif",
      "ficult"
    ],
    [
      "on",
      "ce"
    ],
    [
      "al",
      "th"
    ],
    [
      "in",
      "c"
    ],
    [
      "m",
      "ot"
    ],
    [
      "D",
      "ar"
    ],
    [
      "ci",
      "ent"
    ],
    [
      "be",
      "gin"
    ],
    [
      "fin",
      "ished"
    ],
    [
      "st",
      "aff"
    ],
    [
      "lo",
      "ok"
    ],
    [
      "appear",
      "ance"
    ],
    [
      "qu",
      "ar"
    ],
    [
      "tro",
      "ops"
    ],
    [
      "cut",
      "ive"
    ],
    [
      "r",
      "if"
    ],
    [
      "h",
      "a"
    ],
    [
      "ad",
      "el"
    ],
    [
      "adel",
      "ph"
    ],
    [
      "adelph",
      "ia"
    ],
    [
      "Re",
      "cord"
    ],
    [
      "sur",
      "round"
    ],
    [
      "St",
      "."
    ],
    [
      "p",
      "ast"
    ],
    [
      "so",
      "cial"
    ],
    [
      "Ge",
      "or"
    ],
    [
      "200",
      "2"
    ],
    [
      "As",
      "sociation"
    ],
    [
      "l",
      "ack"
    ],
    [
      "4",
      "5"
    ],
    [
      "to",
      "tal"
    ],
    [
      "M",
      "an"
    ],
    [
      "at",
      "ors"
    ],
    [
      "l",
      "ang"
    ],
    [
      "H",
      "igh"
    ],
    [
      "F",
      "le"
    ],
    [
      "tw",
      "ent"
    ],
    [
      "re",
      "et"
    ],
    [
      "ul",
      "ated"
    ],
    [
      "ct",
      "ing"
    ],
    [
      "m",
      "ir"
    ],
    [
      "l",
      "aw"
    ],
    [
      "str",
      "y"
    ],
    [
      "al",
      "in"
    ],
    [
      "s",
      "at"
    ],
    [
      "us",
      "iness"
    ],
    [
      "battles",
      "hip"
    ],
    [
      "H",
      "ung"
    ],
    [
      "my",
      "th"
    ],
    [
      "de",
      "ity"
    ],
    [
      "cult",
      "ure"
    ],
    [
      "amp",
      "le"
    ],
    [
      "re",
      "am"
    ],
    [
      "P",
      "et"
    ],
    [
      "pol",
      "ic"
    ],
    [
      "re",
      "ag"
    ],
    [
      "V",
      "arg"
    ],
    [
      "Varg",
      "as"
    ],
    [
      "L",
      "losa"
    ],
    [
      "En",
      "d"
    ],
    [
      "SN",
      "L"
    ],
    [
      "Par",
      "vati"
    ],
    [
      "b",
      "asketball"
    ],
    [
      "pr",
      "a"
    ],
    [
      "ran",
      "ch"
    ],
    [
      "t",
      "ion"
    ],
    [
      "do",
      "es"
    ],
    [
      "ex",
      "peri"
    ],
    [
      "th",
      "od"
    ],
    [
      "comm",
      "and"
    ],
    [
      "po",
      "se"
    ],
    [
      "im",
      "pro"
    ],
    [
      "mod",
      "ern"
    ],
    [
      "ib",
      "ility"
    ],
    [
      "Ark",
      "ans"
    ],
    [
      "z",
      "e"
    ],
    [
      "3",
      "5"
    ],
    [
      "comple",
      "te"
    ],
    [
      "ob",
      "serv"
    ],
    [
      "show",
      "s"
    ],
    [
      "lar",
      "ger"
    ],
    [
      "one",
      "y"
    ],
    [
      "Eng",
      "land"
    ],
    [
      "pr",
      "ivate"
    ],
    [
      "omet",
      "imes"
    ],
    [
      "port",
      "un"
    ],
    [
      "s",
      "chol"
    ],
    [
      "n",
      "ature"
    ],
    [
      "p",
      "ick"
    ],
    [
      "K",
      "r"
    ],
    [
      "O",
      "T"
    ],
    [
      "lang",
      "u"
    ],
    [
      "or",
      "us"
    ],
    [
      "te",
      "en"
    ],
    [
      "cre",
      "w"
    ],
    [
      "com",
      "ment"
    ],
    [
      "Carol",
      "ina"
    ],
    [
      "Aw",
      "ard"
    ],
    [
      "T",
      "V"
    ],
    [
      "K",
      "h"
    ],
    [
      "wh",
      "om"
    ],
    [
      "E",
      "ast"
    ],
    [
      "intro",
      "du"
    ],
    [
      "Egyptian",
      "s"
    ],
    [
      "7",
      "0"
    ],
    [
      "ty",
      "pe"
    ],
    [
      "D",
      "omin"
    ],
    [
      "6",
      "0"
    ],
    [
      "ass",
      "ass"
    ],
    [
      "f",
      "ung"
    ],
    [
      "is",
      "land"
    ],
    [
      "V",
      "P"
    ],
    [
      "W",
      "AS"
    ],
    [
      "WAS",
      "P"
    ],
    [
      "cham",
      "ber"
    ],
    [
      "L",
      "ad"
    ],
    [
      "play",
      "ing"
    ],
    [
      "f",
      "an"
    ],
    [
      "ap",
      "s"
    ],
    [
      "ep",
      "is"
    ],
    [
      "ele",
      "ments"
    ],
    [
      "T",
      "o"
    ],
    [
      "he",
      "avy"
    ],
    [
      "re",
      "vol"
    ],
    [
      "G",
      "."
    ],
    [
      "origin",
      "ally"
    ],
    [
      "init",
      "ially"
    ],
    [
      "Y",
      "ou"
    ],
    [
      "p",
      "rec"
    ],
    [
      "list",
      "ed"
    ],
    [
      "feat",
      "ured"
    ],
    [
      "announ",
      "ced"
    ],
    [
      "T",
      "ower"
    ],
    [
      "Arkans",
      "as"
    ],
    [
      "in",
      "st"
    ],
    [
      "gr",
      "am"
    ],
    [
      "ne",
      "y"
    ],
    [
      "Sm",
      "ith"
    ],
    [
      "l",
      "ines"
    ],
    [
      "for",
      "ced"
    ],
    [
      "agre",
      "ed"
    ],
    [
      "person",
      "al"
    ],
    [
      "issu",
      "ed"
    ],
    [
      "large",
      "ly"
    ],
    [
      "199",
      "4"
    ],
    [
      "S",
      "im"
    ],
    [
      "bro",
      "ken"
    ],
    [
      "t",
      "aking"
    ],
    [
      "N",
      "or"
    ],
    [
      "er",
      "ry"
    ],
    [
      "M",
      "any"
    ],
    [
      "ain",
      "s"
    ],
    [
      "l",
      "ic"
    ],
    [
      "fir",
      "ed"
    ],
    [
      "win",
      "ning"
    ],
    [
      "m",
      "ight"
    ],
    [
      "h",
      "it"
    ],
    [
      "p",
      "ing"
    ],
    [
      "week",
      "s"
    ],
    [
      "Des",
      "pite"
    ],
    [
      "four",
      "th"
    ],
    [
      "ist",
      "ics"
    ],
    [
      "str",
      "ict"
    ],
    [
      "ac",
      "cording"
    ],
    [
      "C",
      "are"
    ],
    [
      "S",
      "ing"
    ],
    [
      "A",
      "ct"
    ],
    [
      "h",
      "ar"
    ],
    [
      "h",
      "ur"
    ],
    [
      "E",
      "r"
    ],
    [
      "ob",
      "ject"
    ],
    [
      "k",
      "ing"
    ],
    [
      "fig",
      "ures"
    ],
    [
      "reg",
      "ard"
    ],
    [
      "D",
      "ef"
    ],
    [
      "Fle",
      "et"
    ],
    [
      "Direct",
      "or"
    ],
    [
      "D",
      "í"
    ],
    [
      "Dí",
      "az"
    ],
    [
      "Re",
      "public"
    ],
    [
      "syn",
      "agogue"
    ],
    [
      "M",
      "VP"
    ],
    [
      "n",
      "ation"
    ],
    [
      "open",
      "ing"
    ],
    [
      "ac",
      "qu"
    ],
    [
      "ent",
      "ire"
    ],
    [
      "ac",
      "c"
    ],
    [
      "design",
      "ed"
    ],
    [
      "in",
      "str"
    ],
    [
      "av",
      "ail"
    ],
    [
      "5",
      "00"
    ],
    [
      "go",
      "od"
    ],
    [
      "ac",
      "y"
    ],
    [
      "d",
      "ire"
    ],
    [
      "appear",
      "ances"
    ],
    [
      "an",
      "a"
    ],
    [
      "res",
      "pect"
    ],
    [
      "H",
      "ist"
    ],
    [
      "200",
      "1"
    ],
    [
      "tow",
      "er"
    ],
    [
      "remain",
      "ing"
    ],
    [
      "i",
      "or"
    ],
    [
      "arm",
      "s"
    ],
    [
      "comple",
      "ted"
    ],
    [
      "p",
      "s"
    ],
    [
      "de",
      "m"
    ],
    [
      "a",
      "ign"
    ],
    [
      "n",
      "early"
    ],
    [
      "De",
      "partment"
    ],
    [
      "fav",
      "or"
    ],
    [
      "9",
      "0"
    ],
    [
      "us",
      "es"
    ],
    [
      "con",
      "cl"
    ],
    [
      "act",
      "s"
    ],
    [
      "h",
      "on"
    ],
    [
      "claim",
      "ed"
    ],
    [
      "are",
      "n"
    ],
    [
      "M",
      "y"
    ],
    [
      "stud",
      "io"
    ],
    [
      "n",
      "at"
    ],
    [
      "te",
      "chn"
    ],
    [
      "e",
      "y"
    ],
    [
      "199",
      "8"
    ],
    [
      "amp",
      "ion"
    ],
    [
      "op",
      "portun"
    ],
    [
      "end",
      "er"
    ],
    [
      "fif",
      "th"
    ],
    [
      "min",
      "ut"
    ],
    [
      "de",
      "ad"
    ],
    [
      "ic",
      "ation"
    ],
    [
      "represent",
      "ed"
    ],
    [
      "Dav",
      "id"
    ],
    [
      "commun",
      "ity"
    ],
    [
      "inch",
      "es"
    ],
    [
      "p",
      "ow"
    ],
    [
      "Char",
      "les"
    ],
    [
      "crit",
      "ical"
    ],
    [
      "f",
      "ict"
    ],
    [
      "ist",
      "an"
    ],
    [
      "as",
      "ter"
    ],
    [
      "w",
      "ing"
    ],
    [
      "eas",
      "tern"
    ],
    [
      "empl",
      "es"
    ],
    [
      "r",
      "ul"
    ],
    [
      "pr",
      "act"
    ],
    [
      "incre",
      "asing"
    ],
    [
      "car",
      "bon"
    ],
    [
      "M",
      "int"
    ],
    [
      "Domin",
      "ican"
    ],
    [
      "Z",
      "agre"
    ],
    [
      "Zagre",
      "b"
    ],
    [
      "German",
      "s"
    ],
    [
      "Ne",
      "olithic"
    ],
    [
      "st",
      "ones"
    ],
    [
      "Th",
      "ai"
    ],
    [
      "w",
      "olf"
    ],
    [
      "Se",
      "cond"
    ],
    [
      "C",
      "al"
    ],
    [
      "ip",
      "le"
    ],
    [
      "el",
      "s"
    ],
    [
      "oc",
      "cur"
    ],
    [
      "miss",
      "ion"
    ],
    [
      "feat",
      "ure"
    ],
    [
      "R",
      "am"
    ],
    [
      "re",
      "ason"
    ],
    [
      "w",
      "anted"
    ],
    [
      "inter",
      "view"
    ],
    [
      "work",
      "ing"
    ],
    [
      "M",
      "o"
    ],
    [
      "de",
      "tail"
    ],
    [
      "En",
      "gl"
    ],
    [
      "Engl",
      "ish"
    ],
    [
      "gener",
      "ally"
    ],
    [
      "as",
      "pect"
    ],
    [
      "3",
      "1"
    ],
    [
      "L",
      "ight"
    ],
    [
      "G",
      "overnment"
    ],
    [
      "comp",
      "any"
    ],
    [
      "sit",
      "u"
    ],
    [
      "allow",
      "ed"
    ],
    [
      "con",
      "ver"
    ],
    [
      "ip",
      "p"
    ],
    [
      "R",
      "iver"
    ],
    [
      "a",
      "id"
    ],
    [
      "pre",
      "par"
    ],
    [
      "pres",
      "sed"
    ],
    [
      "Record",
      "s"
    ],
    [
      "B",
      "ro"
    ],
    [
      "ag",
      "o"
    ],
    [
      "c",
      "am"
    ],
    [
      "book",
      "s"
    ],
    [
      "col",
      "labor"
    ],
    [
      "d",
      "ied"
    ],
    [
      "E",
      "le"
    ],
    [
      "d",
      "ou"
    ],
    [
      "sou",
      "thern"
    ],
    [
      "gre",
      "ater"
    ],
    [
      "cour",
      "se"
    ],
    [
      "W",
      "estern"
    ],
    [
      "bro",
      "ad"
    ],
    [
      "s",
      "ize"
    ],
    [
      "dr",
      "aft"
    ],
    [
      "high",
      "est"
    ],
    [
      "minut",
      "es"
    ],
    [
      "It",
      "al"
    ],
    [
      "great",
      "est"
    ],
    [
      "s",
      "un"
    ],
    [
      "Atl",
      "anta"
    ],
    [
      "red",
      "u"
    ],
    [
      "the",
      "at"
    ],
    [
      "relation",
      "ship"
    ],
    [
      "c",
      "is"
    ],
    [
      "sh",
      "oot"
    ],
    [
      "wor",
      "ship"
    ],
    [
      "z",
      "y"
    ],
    [
      "s",
      "al"
    ],
    [
      "M",
      "ex"
    ],
    [
      "N",
      "ight"
    ],
    [
      "ag",
      "and"
    ],
    [
      "FIT",
      "s"
    ],
    [
      "St",
      "ansfield"
    ],
    [
      "comp",
      "ounds"
    ],
    [
      "Archaeolog",
      "y"
    ],
    [
      "T",
      "wins"
    ],
    [
      "S",
      "en"
    ],
    [
      "the",
      "me"
    ],
    [
      "sele",
      "cted"
    ],
    [
      "rel",
      "ated"
    ],
    [
      "car",
      "ried"
    ],
    [
      "n",
      "ine"
    ],
    [
      "div",
      "ided"
    ],
    [
      "d",
      "ict"
    ],
    [
      "t",
      "ar"
    ],
    [
      "num",
      "bers"
    ],
    [
      "s",
      "ion"
    ],
    [
      "dep",
      "end"
    ],
    [
      "pro",
      "posed"
    ],
    [
      "i",
      "ke"
    ],
    [
      "set",
      "t"
    ],
    [
      "if",
      "y"
    ],
    [
      "pie",
      "ce"
    ],
    [
      "resp",
      "ons"
    ],
    [
      "ly",
      "r"
    ],
    [
      "s",
      "top"
    ],
    [
      "turn",
      "ed"
    ],
    [
      "B",
      "ut"
    ],
    [
      "Ar",
      "t"
    ],
    [
      "ne",
      "cess"
    ],
    [
      "c",
      "ivil"
    ],
    [
      "de",
      "li"
    ],
    [
      "i",
      "ber"
    ],
    [
      "k",
      "er"
    ],
    [
      "open",
      "ed"
    ],
    [
      "b",
      "or"
    ],
    [
      "re",
      "en"
    ],
    [
      "Ch",
      "ic"
    ],
    [
      "Chic",
      "ago"
    ],
    [
      "me",
      "et"
    ],
    [
      "G",
      "reat"
    ],
    [
      "educ",
      "ation"
    ],
    [
      "d",
      "le"
    ],
    [
      "s",
      "ometimes"
    ],
    [
      "stud",
      "ents"
    ],
    [
      "s",
      "ac"
    ],
    [
      "l",
      "if"
    ],
    [
      "pl",
      "es"
    ],
    [
      "foot",
      "ball"
    ],
    [
      "ac",
      "cess"
    ],
    [
      "act",
      "ing"
    ],
    [
      "olog",
      "ical"
    ],
    [
      "stud",
      "y"
    ],
    [
      "prom",
      "in"
    ],
    [
      "ce",
      "ed"
    ],
    [
      "sur",
      "v"
    ],
    [
      "Phil",
      "adelphia"
    ],
    [
      "man",
      "ag"
    ],
    [
      "i",
      "ew"
    ],
    [
      "ro",
      "ph"
    ],
    [
      "ear",
      "ned"
    ],
    [
      "Con",
      "ference"
    ],
    [
      "C",
      "AA"
    ],
    [
      "ate",
      "g"
    ],
    [
      "ific",
      "ation"
    ],
    [
      "m",
      "ic"
    ],
    [
      "sil",
      "ver"
    ],
    [
      "subsequ",
      "ently"
    ],
    [
      "twent",
      "y"
    ],
    [
      "C",
      "oun"
    ],
    [
      "v",
      "ice"
    ],
    [
      "pil",
      "ots"
    ],
    [
      "m",
      "ass"
    ],
    [
      "review",
      "s"
    ],
    [
      "se",
      "e"
    ],
    [
      "off",
      "er"
    ],
    [
      "ab",
      "s"
    ],
    [
      "de",
      "fin"
    ],
    [
      "produ",
      "cer"
    ],
    [
      "Europe",
      "an"
    ],
    [
      "il",
      "is"
    ],
    [
      "ac",
      "re"
    ],
    [
      "dollar",
      "s"
    ],
    [
      "h",
      "oliday"
    ],
    [
      "R",
      "AA"
    ],
    [
      "RAA",
      "F"
    ],
    [
      "Archaeolog",
      "ical"
    ],
    [
      "Rus",
      "s"
    ],
    [
      "ł",
      "aw"
    ],
    [
      "Ve",
      "er"
    ],
    [
      "Veer",
      "u"
    ],
    [
      "pr",
      "ed"
    ],
    [
      "sc",
      "ri"
    ],
    [
      "addition",
      "al"
    ],
    [
      "ent",
      "ial"
    ],
    [
      "A",
      "b"
    ],
    [
      "or",
      "ary"
    ],
    [
      "im",
      "in"
    ],
    [
      "me",
      "an"
    ],
    [
      "kn",
      "ow"
    ],
    [
      "con",
      "f"
    ],
    [
      "begin",
      "ning"
    ],
    [
      "resp",
      "on"
    ],
    [
      "respon",
      "se"
    ],
    [
      "am",
      "oun"
    ],
    [
      "part",
      "s"
    ],
    [
      "t",
      "a"
    ],
    [
      "F",
      "l"
    ],
    [
      "az",
      "ine"
    ],
    [
      "K",
      "ur"
    ],
    [
      "event",
      "ually"
    ],
    [
      "in",
      "ct"
    ],
    [
      "m",
      "un"
    ],
    [
      "ter",
      "m"
    ],
    [
      "ele",
      "ct"
    ],
    [
      "im",
      "ent"
    ],
    [
      "sub",
      "ject"
    ],
    [
      "Pres",
      "ident"
    ],
    [
      "g",
      "es"
    ],
    [
      "ot",
      "e"
    ],
    [
      "camp",
      "aign"
    ],
    [
      "so",
      "on"
    ],
    [
      "establ",
      "ish"
    ],
    [
      "it",
      "ors"
    ],
    [
      "ur",
      "ch"
    ],
    [
      "al",
      "d"
    ],
    [
      "l",
      "iter"
    ],
    [
      "cap",
      "t"
    ],
    [
      "F",
      "A"
    ],
    [
      "F",
      "oot"
    ],
    [
      "estim",
      "ated"
    ],
    [
      "individ",
      "uals"
    ],
    [
      "me",
      "as"
    ],
    [
      "f",
      "ar"
    ],
    [
      "th",
      "us"
    ],
    [
      "ter",
      "ms"
    ],
    [
      "pri",
      "or"
    ],
    [
      "con",
      "se"
    ],
    [
      "ar",
      "ily"
    ],
    [
      "D",
      "iv"
    ],
    [
      "J",
      "ul"
    ],
    [
      "met",
      "res"
    ],
    [
      "langu",
      "age"
    ],
    [
      "M",
      "et"
    ],
    [
      "V",
      "al"
    ],
    [
      "Pa",
      "ul"
    ],
    [
      "control",
      "led"
    ],
    [
      "h",
      "ard"
    ],
    [
      "K",
      "ar"
    ],
    [
      "support",
      "ed"
    ],
    [
      "c",
      "ere"
    ],
    [
      "b",
      "usiness"
    ],
    [
      "Hung",
      "arian"
    ],
    [
      "he",
      "av"
    ],
    [
      "t",
      "emples"
    ],
    [
      "cre",
      "ation"
    ],
    [
      "v",
      "iron"
    ],
    [
      "viron",
      "ment"
    ],
    [
      "ex",
      "ample"
    ],
    [
      "shr",
      "ine"
    ],
    [
      "193",
      "9"
    ],
    [
      "Z",
      "r"
    ],
    [
      "ul",
      "pt"
    ],
    [
      "pres",
      "ident"
    ],
    [
      "e",
      "ter"
    ],
    [
      "g",
      "a"
    ],
    [
      "P",
      "lay"
    ],
    [
      "I",
      "m"
    ],
    [
      "R",
      "ev"
    ],
    [
      "g",
      "ress"
    ],
    [
      "h",
      "app"
    ],
    [
      "v",
      "ict"
    ],
    [
      "ke",
      "ep"
    ],
    [
      "kill",
      "ed"
    ],
    [
      "se",
      "par"
    ],
    [
      "mo",
      "de"
    ],
    [
      "pe",
      "cted"
    ],
    [
      "track",
      "s"
    ],
    [
      "avail",
      "able"
    ],
    [
      "ne",
      "g"
    ],
    [
      "prov",
      "ided"
    ],
    [
      "sc",
      "ene"
    ],
    [
      "ap",
      "t"
    ],
    [
      "art",
      "ists"
    ],
    [
      "An",
      "t"
    ],
    [
      "trans",
      "ferred"
    ],
    [
      "t",
      "ell"
    ],
    [
      "all",
      "ed"
    ],
    [
      "p",
      "ly"
    ],
    [
      "qu",
      "ick"
    ],
    [
      "pro",
      "per"
    ],
    [
      "b",
      "es"
    ],
    [
      "Th",
      "at"
    ],
    [
      "18",
      "5"
    ],
    [
      "om",
      "as"
    ],
    [
      "mil",
      "es"
    ],
    [
      "attempt",
      "ed"
    ],
    [
      "ren",
      "d"
    ],
    [
      "18",
      "8"
    ],
    [
      "fin",
      "ally"
    ],
    [
      "sis",
      "ter"
    ],
    [
      "F",
      "ollow"
    ],
    [
      "Follow",
      "ing"
    ],
    [
      "condu",
      "cted"
    ],
    [
      "an",
      "aly"
    ],
    [
      "influ",
      "enced"
    ],
    [
      "partic",
      "ip"
    ],
    [
      "il",
      "i"
    ],
    [
      "la",
      "un"
    ],
    [
      "con",
      "om"
    ],
    [
      "Will",
      "iam"
    ],
    [
      "th",
      "reat"
    ],
    [
      "en",
      "se"
    ],
    [
      "season",
      "s"
    ],
    [
      "conse",
      "cutive"
    ],
    [
      "n",
      "es"
    ],
    [
      "pro",
      "test"
    ],
    [
      "Ital",
      "ian"
    ],
    [
      "te",
      "e"
    ],
    [
      "high",
      "way"
    ],
    [
      "ree",
      "k"
    ],
    [
      "Se",
      "cret"
    ],
    [
      "Comm",
      "ander"
    ],
    [
      "mir",
      "al"
    ],
    [
      "ant",
      "ic"
    ],
    [
      "in",
      "em"
    ],
    [
      "cere",
      "mon"
    ],
    [
      "Canad",
      "a"
    ],
    [
      "199",
      "6"
    ],
    [
      "CA",
      "T"
    ],
    [
      "199",
      "9"
    ],
    [
      "it",
      "self"
    ],
    [
      "M",
      "S"
    ],
    [
      "Aust",
      "ro"
    ],
    [
      "relig",
      "ion"
    ],
    [
      "O",
      "ther"
    ],
    [
      "v",
      "ill"
    ],
    [
      "mon",
      "uments"
    ],
    [
      "th",
      "ink"
    ],
    [
      "id",
      "er"
    ],
    [
      "aerodrom",
      "es"
    ],
    [
      "pil",
      "ot"
    ],
    [
      "rad",
      "io"
    ],
    [
      "Zr",
      "í"
    ],
    [
      "Zrí",
      "nyi"
    ],
    [
      "sc",
      "ulpt"
    ],
    [
      "C",
      "or"
    ],
    [
      "cou",
      "p"
    ],
    [
      "ag",
      "ing"
    ],
    [
      "R",
      "A"
    ],
    [
      "N",
      "az"
    ],
    [
      "agand",
      "a"
    ],
    [
      "sk",
      "a"
    ],
    [
      "bar",
      "row"
    ],
    [
      "Med",
      "way"
    ],
    [
      "ex",
      "it"
    ],
    [
      "al",
      "ways"
    ],
    [
      "award",
      "ed"
    ],
    [
      "me",
      "thod"
    ],
    [
      "f",
      "ight"
    ],
    [
      "most",
      "ly"
    ],
    [
      "sold",
      "iers"
    ],
    [
      "com",
      "es"
    ],
    [
      "sel",
      "ves"
    ],
    [
      "M",
      "ax"
    ],
    [
      "su",
      "per"
    ],
    [
      "revol",
      "ution"
    ],
    [
      "requ",
      "ired"
    ],
    [
      "pol",
      "y"
    ],
    [
      "them",
      "es"
    ],
    [
      "gu",
      "it"
    ],
    [
      "m",
      "us"
    ],
    [
      "lyr",
      "ics"
    ],
    [
      "j",
      "ournal"
    ],
    [
      "n",
      "et"
    ],
    [
      "issu",
      "es"
    ],
    [
      "high",
      "ly"
    ],
    [
      "plann",
      "ed"
    ],
    [
      "tit",
      "le"
    ],
    [
      "Ro",
      "ad"
    ],
    [
      "re",
      "search"
    ],
    [
      "B",
      "lo"
    ],
    [
      "F",
      "lower"
    ],
    [
      "r",
      "ated"
    ],
    [
      "Ar",
      "sen"
    ],
    [
      "Arsen",
      "al"
    ],
    [
      "199",
      "7"
    ],
    [
      "Cl",
      "ub"
    ],
    [
      "overn",
      "or"
    ],
    [
      "Ro",
      "bert"
    ],
    [
      "read",
      "y"
    ],
    [
      "se",
      "cur"
    ],
    [
      "s",
      "af"
    ],
    [
      "ex",
      "cept"
    ],
    [
      "consist",
      "ed"
    ],
    [
      "3",
      "6"
    ],
    [
      "ith",
      "s"
    ],
    [
      "n",
      "aval"
    ],
    [
      "is",
      "to"
    ],
    [
      "month",
      "s"
    ],
    [
      "i",
      "ence"
    ],
    [
      "198",
      "5"
    ],
    [
      "ous",
      "ly"
    ],
    [
      "ach",
      "ing"
    ],
    [
      "19",
      "20"
    ],
    [
      "att",
      "ention"
    ],
    [
      "198",
      "8"
    ],
    [
      "H",
      "ouse"
    ],
    [
      "W",
      "ales"
    ],
    [
      "T",
      "re"
    ],
    [
      "f",
      "ind"
    ],
    [
      "Foot",
      "ball"
    ],
    [
      "4",
      "9"
    ],
    [
      "im",
      "p"
    ],
    [
      "as",
      "soci"
    ],
    [
      "r",
      "ay"
    ],
    [
      "be",
      "low"
    ],
    [
      "gen",
      "us"
    ],
    [
      "r",
      "ays"
    ],
    [
      "n",
      "uc"
    ],
    [
      "sex",
      "ual"
    ],
    [
      "miss",
      "ed"
    ],
    [
      "re",
      "placed"
    ],
    [
      "dis",
      "cus"
    ],
    [
      "O",
      "per"
    ],
    [
      "Sh",
      "ort"
    ],
    [
      "il",
      "le"
    ],
    [
      "re",
      "fle"
    ],
    [
      "arch",
      "ite"
    ],
    [
      "archite",
      "ct"
    ],
    [
      "h",
      "ill"
    ],
    [
      "B",
      "ob"
    ],
    [
      "st",
      "ep"
    ],
    [
      "tor",
      "ped"
    ],
    [
      "torped",
      "o"
    ],
    [
      "c",
      "lear"
    ],
    [
      "Ad",
      "miral"
    ],
    [
      "P",
      "enn"
    ],
    [
      "D",
      "an"
    ],
    [
      "Fran",
      "cis"
    ],
    [
      "act",
      "ed"
    ],
    [
      "ex",
      "am"
    ],
    [
      "beli",
      "ef"
    ],
    [
      "Cro",
      "at"
    ],
    [
      "t",
      "ur"
    ],
    [
      "sy",
      "mb"
    ],
    [
      "symb",
      "ol"
    ],
    [
      "coun",
      "ter"
    ],
    [
      "r",
      "up"
    ],
    [
      "He",
      "aven"
    ],
    [
      "la",
      "bel"
    ],
    [
      "avi",
      "ation"
    ],
    [
      "fung",
      "us"
    ],
    [
      "m",
      "int"
    ],
    [
      "P",
      "ak"
    ],
    [
      "Pak",
      "istan"
    ],
    [
      "cop",
      "ies"
    ],
    [
      "is",
      "c"
    ],
    [
      "rican",
      "e"
    ],
    [
      "J",
      "ai"
    ],
    [
      "J",
      "ap"
    ],
    [
      "Jap",
      "an"
    ],
    [
      "us",
      "ion"
    ],
    [
      "el",
      "ess"
    ],
    [
      "crit",
      "ics"
    ],
    [
      "f",
      "ranch"
    ],
    [
      "to",
      "ld"
    ],
    [
      "spec",
      "ific"
    ],
    [
      "ass",
      "igned"
    ],
    [
      "M",
      "il"
    ],
    [
      "offic",
      "er"
    ],
    [
      "destroy",
      "ed"
    ],
    [
      "ask",
      "ed"
    ],
    [
      "ter",
      "rit"
    ],
    [
      "them",
      "selves"
    ],
    [
      "ar",
      "med"
    ],
    [
      "tr",
      "ue"
    ],
    [
      "stru",
      "ct"
    ],
    [
      "sp",
      "ace"
    ],
    [
      "main",
      "tain"
    ],
    [
      "eng",
      "ine"
    ],
    [
      "reve",
      "aled"
    ],
    [
      "Pe",
      "ople"
    ],
    [
      "over",
      "all"
    ],
    [
      "n",
      "on"
    ],
    [
      "o",
      "de"
    ],
    [
      "comm",
      "ander"
    ],
    [
      "requ",
      "est"
    ],
    [
      "new",
      "ly"
    ],
    [
      "ord",
      "ered"
    ],
    [
      "e",
      "e"
    ],
    [
      "ex",
      "e"
    ],
    [
      "f",
      "ell"
    ],
    [
      "b",
      "atter"
    ],
    [
      "al",
      "most"
    ],
    [
      "sp",
      "ir"
    ],
    [
      "er",
      "ate"
    ],
    [
      "contin",
      "ue"
    ],
    [
      "m",
      "oney"
    ],
    [
      "ex",
      "hib"
    ],
    [
      "9",
      "5"
    ],
    [
      "n",
      "s"
    ],
    [
      "ro",
      "om"
    ],
    [
      "co",
      "ast"
    ],
    [
      "h",
      "om"
    ],
    [
      "th",
      "ings"
    ],
    [
      "P",
      "rom"
    ],
    [
      "soci",
      "ety"
    ],
    [
      "photo",
      "graph"
    ],
    [
      "T",
      "ri"
    ],
    [
      "E",
      "l"
    ],
    [
      "An",
      "g"
    ],
    [
      "G",
      "amb"
    ],
    [
      "be",
[...]
